<unk>	0
<s>	0
</s>	0
<0x00>	0
<0x01>	0
<0x02>	0
<0x03>	0
<0x04>	0
<0x05>	0
<0x06>	0
<0x07>	0
<0x08>	0
<0x09>	0
<0x0A>	0
<0x0B>	0
<0x0C>	0
<0x0D>	0
<0x0E>	0
<0x0F>	0
<0x10>	0
<0x11>	0
<0x12>	0
<0x13>	0
<0x14>	0
<0x15>	0
<0x16>	0
<0x17>	0
<0x18>	0
<0x19>	0
<0x1A>	0
<0x1B>	0
<0x1C>	0
<0x1D>	0
<0x1E>	0
<0x1F>	0
<0x20>	0
<0x21>	0
<0x22>	0
<0x23>	0
<0x24>	0
<0x25>	0
<0x26>	0
<0x27>	0
<0x28>	0
<0x29>	0
<0x2A>	0
<0x2B>	0
<0x2C>	0
<0x2D>	0
<0x2E>	0
<0x2F>	0
<0x30>	0
<0x31>	0
<0x32>	0
<0x33>	0
<0x34>	0
<0x35>	0
<0x36>	0
<0x37>	0
<0x38>	0
<0x39>	0
<0x3A>	0
<0x3B>	0
<0x3C>	0
<0x3D>	0
<0x3E>	0
<0x3F>	0
<0x40>	0
<0x41>	0
<0x42>	0
<0x43>	0
<0x44>	0
<0x45>	0
<0x46>	0
<0x47>	0
<0x48>	0
<0x49>	0
<0x4A>	0
<0x4B>	0
<0x4C>	0
<0x4D>	0
<0x4E>	0
<0x4F>	0
<0x50>	0
<0x51>	0
<0x52>	0
<0x53>	0
<0x54>	0
<0x55>	0
<0x56>	0
<0x57>	0
<0x58>	0
<0x59>	0
<0x5A>	0
<0x5B>	0
<0x5C>	0
<0x5D>	0
<0x5E>	0
<0x5F>	0
<0x60>	0
<0x61>	0
<0x62>	0
<0x63>	0
<0x64>	0
<0x65>	0
<0x66>	0
<0x67>	0
<0x68>	0
<0x69>	0
<0x6A>	0
<0x6B>	0
<0x6C>	0
<0x6D>	0
<0x6E>	0
<0x6F>	0
<0x70>	0
<0x71>	0
<0x72>	0
<0x73>	0
<0x74>	0
<0x75>	0
<0x76>	0
<0x77>	0
<0x78>	0
<0x79>	0
<0x7A>	0
<0x7B>	0
<0x7C>	0
<0x7D>	0
<0x7E>	0
<0x7F>	0
<0x80>	0
<0x81>	0
<0x82>	0
<0x83>	0
<0x84>	0
<0x85>	0
<0x86>	0
<0x87>	0
<0x88>	0
<0x89>	0
<0x8A>	0
<0x8B>	0
<0x8C>	0
<0x8D>	0
<0x8E>	0
<0x8F>	0
<0x90>	0
<0x91>	0
<0x92>	0
<0x93>	0
<0x94>	0
<0x95>	0
<0x96>	0
<0x97>	0
<0x98>	0
<0x99>	0
<0x9A>	0
<0x9B>	0
<0x9C>	0
<0x9D>	0
<0x9E>	0
<0x9F>	0
<0xA0>	0
<0xA1>	0
<0xA2>	0
<0xA3>	0
<0xA4>	0
<0xA5>	0
<0xA6>	0
<0xA7>	0
<0xA8>	0
<0xA9>	0
<0xAA>	0
<0xAB>	0
<0xAC>	0
<0xAD>	0
<0xAE>	0
<0xAF>	0
<0xB0>	0
<0xB1>	0
<0xB2>	0
<0xB3>	0
<0xB4>	0
<0xB5>	0
<0xB6>	0
<0xB7>	0
<0xB8>	0
<0xB9>	0
<0xBA>	0
<0xBB>	0
<0xBC>	0
<0xBD>	0
<0xBE>	0
<0xBF>	0
<0xC0>	0
<0xC1>	0
<0xC2>	0
<0xC3>	0
<0xC4>	0
<0xC5>	0
<0xC6>	0
<0xC7>	0
<0xC8>	0
<0xC9>	0
<0xCA>	0
<0xCB>	0
<0xCC>	0
<0xCD>	0
<0xCE>	0
<0xCF>	0
<0xD0>	0
<0xD1>	0
<0xD2>	0
<0xD3>	0
<0xD4>	0
<0xD5>	0
<0xD6>	0
<0xD7>	0
<0xD8>	0
<0xD9>	0
<0xDA>	0
<0xDB>	0
<0xDC>	0
<0xDD>	0
<0xDE>	0
<0xDF>	0
<0xE0>	0
<0xE1>	0
<0xE2>	0
<0xE3>	0
<0xE4>	0
<0xE5>	0
<0xE6>	0
<0xE7>	0
<0xE8>	0
<0xE9>	0
<0xEA>	0
<0xEB>	0
<0xEC>	0
<0xED>	0
<0xEE>	0
<0xEF>	0
<0xF0>	0
<0xF1>	0
<0xF2>	0
<0xF3>	0
<0xF4>	0
<0xF5>	0
<0xF6>	0
<0xF7>	0
<0xF8>	0
<0xF9>	0
<0xFA>	0
<0xFB>	0
<0xFC>	0
<0xFD>	0
<0xFE>	0
<0xFF>	0
▁t	-0
he	-1
▁a	-2
in	-3
▁the	-4
▁s	-5
re	-6
▁w	-7
▁o	-8
nd	-9
er	-10
at	-11
ed	-12
▁c	-13
on	-14
it	-15
▁b	-16
▁f	-17
en	-18
▁and	-19
is	-20
▁to	-21
▁p	-22
es	-23
ou	-24
or	-25
an	-26
ing	-27
▁m	-28
al	-29
ar	-30
▁d	-31
▁h	-32
▁of	-33
▁in	-34
as	-35
▁l	-36
om	-37
ic	-38
▁T	-39
il	-40
ion	-41
▁th	-42
▁n	-43
le	-44
▁e	-45
ent	-46
▁g	-47
id	-48
ro	-49
▁S	-50
▁The	-51
ve	-52
▁he	-53
ay	-54
im	-55
▁re	-56
et	-57
ct	-58
ut	-59
st	-60
ly	-61
▁was	-62
▁be	-63
ad	-64
ot	-65
▁is	-66
ow	-67
▁I	-68
▁u	-69
ir	-70
ver	-71
▁A	-72
ig	-73
se	-74
ol	-75
ce	-76
▁it	-77
am	-78
▁st	-79
▁on	-80
▁y	-81
▁that	-82
▁for	-83
ch	-84
ur	-85
▁H	-86
ith	-87
ation	-88
el	-89
▁with	-90
ul	-91
▁you	-92
▁C	-93
▁ha	-94
▁M	-95
ra	-96
▁as	-97
▁B	-98
▁an	-99
▁wh	-100
her	-101
▁al	-102
ld	-103
ke	-104
ri	-105
oo	-106
▁are	-107
▁sa	-108
pp	-109
▁L	-110
ter	-111
▁we	-112
if	-113
ant	-114
▁"	-115
ac	-116
▁O	-117
▁pro	-118
▁or	-119
ore	-120
▁W	-121
un	-122
ill	-123
▁P	-124
ge	-125
▁He	-126
▁con	-127
um	-128
▁ex	-129
▁de	-130
▁her	-131
rom	-132
▁(	-133
▁r	-134
op	-135
th	-136
ist	-137
▁pl	-138
▁ne	-139
▁1	-140
ers	-141
ate	-142
us	-143
▁se	-144
▁not	-145
▁so	-146
ht	-147
▁at	-148
ess	-149
ure	-150
▁sh	-151
▁com	-152
est	-153
ould	-154
▁She	-155
▁They	-156
ab	-157
ain	-158
ment	-159
pe	-160
▁D	-161
▁E	-162
▁F	-163
▁can	-164
▁they	-165
▁v	-166
ive	-167
qu	-168
os	-169
rou	-170
very	-171
▁his	-172
ci	-173
nt	-174
ily	-175
ity	-176
ud	-177
▁from	-178
em	-179
▁by	-180
art	-181
ome	-182
▁have	-183
▁ch	-184
▁said	-185
ked	-186
all	-187
▁k	-188
red	-189
▁R	-190
▁su	-191
and	-192
ies	-193
▁she	-194
ide	-195
▁up	-196
iv	-197
▁On	-198
▁do	-199
▁-	-200
▁J	-201
▁le	-202
ort	-203
res	-204
ard	-205
ight	-206
od	-207
▁N	-208
▁had	-209
fe	-210
▁their	-211
▁G	-212
▁but	-213
▁day	-214
▁2	-215
ime	-216
ther	-217
▁wor	-218
ally	-219
ry	-220
▁It	-221
▁were	-222
▁ab	-223
hen	-224
▁ma	-225
▁all	-226
▁this	-227
ell	-228
out	-229
ood	-230
▁there	-231
ack	-232
▁Lily	-233
▁time	-234
ust	-235
pt	-236
▁li	-237
itt	-238
pl	-239
ind	-240
end	-241
▁j	-242
ast	-243
ction	-244
▁In	-245
og	-246
▁play	-247
▁out	-248
our	-249
ong	-250
ost	-251
▁im	-252
▁cl	-253
ich	-254
▁int	-255
ous	-256
ine	-257
▁us	-258
oc	-259
are	-260
▁en	-261
per	-262
00	-263
▁man	-264
▁them	-265
ag	-266
ical	-267
▁your	-268
ated	-269
▁very	-270
ame	-271
ie	-272
uc	-273
gh	-274
▁Th	-275
ear	-276
king	-277
one	-278
▁go	-279
▁will	-280
▁sm	-281
▁want	-282
▁me	-283
ks	-284
▁mom	-285
my	-286
au	-287
▁happ	-288
▁more	-289
▁other	-290
age	-291
so	-292
iz	-293
▁ad	-294
ia	-295
ans	-296
ved	-297
ater	-298
▁U	-299
ice	-300
▁which	-301
▁kn	-302
ittle	-303
▁dis	-304
▁cont	-305
▁one	-306
ays	-307
▁who	-308
ound	-309
▁little	-310
act	-311
▁has	-312
cc	-313
ach	-314
ild	-315
hed	-316
▁inc	-317
ary	-318
▁some	-319
ult	-320
▁comp	-321
▁sp	-322
ree	-323
▁hel	-324
able	-325
▁loo	-326
▁res	-327
▁“	-328
ond	-329
ue	-330
vel	-331
ions	-332
orm	-333
reat	-334
▁ro	-335
▁big	-336
▁could	-337
round	-338
ep	-339
low	-340
."	-341
ations	-342
ap	-343
▁about	-344
ib	-345
▁tr	-346
ings	-347
▁fe	-348
▁ag	-349
▁help	-350
ite	-351
ass	-352
▁One	-353
riend	-354
▁like	-355
ace	-356
▁te	-357
▁him	-358
▁imp	-359
▁would	-360
▁Y	-361
▁spe	-362
▁happy	-363
ence	-364
▁friend	-365
ip	-366
ish	-367
▁also	-368
oy	-369
▁when	-370
▁too	-371
▁bec	-372
ance	-373
▁per	-374
▁pe	-375
ase	-376
ents	-377
ress	-378
▁saw	-379
av	-380
own	-381
▁than	-382
▁sc	-383
▁ev	-384
ber	-385
ru	-386
ile	-387
ful	-388
ren	-389
▁ar	-390
▁ta	-391
te	-392
ark	-393
ade	-394
▁un	-395
▁lo	-396
ign	-397
ial	-398
▁app	-399
▁what	-400
▁no	-401
▁new	-402
▁pre	-403
▁Tim	-404
▁19	-405
▁Once	-406
▁did	-407
▁qu	-408
ang	-409
▁part	-410
ire	-411
ory	-412
eth	-413
ub	-414
ount	-415
ens	-416
▁K	-417
▁But	-418
▁into	-419
ition	-420
▁This	-421
▁St	-422
▁upon	-423
ors	-424
ord	-425
▁bl	-426
▁how	-427
irl	-428
nder	-429
▁over	-430
▁col	-431
▁back	-432
!"	-433
ose	-434
ll	-435
ople	-436
▁stud	-437
ff	-438
here	-439
ause	-440
cial	-441
▁girl	-442
▁make	-443
▁dec	-444
).	-445
▁its	-446
▁wanted	-447
▁tw	-448
▁fun	-449
▁year	-450
wn	-451
arn	-452
▁Ch	-453
ys	-454
mer	-455
side	-456
get	-457
▁any	-458
ces	-459
▁been	-460
ited	-461
ick	-462
▁sy	-463
ew	-464
▁bet	-465
▁see	-466
▁ra	-467
ect	-468
▁if	-469
▁people	-470
form	-471
ise	-472
▁may	-473
olog	-474
▁need	-475
we	-476
fter	-477
als	-478
▁around	-479
igh	-480
ph	-481
ght	-482
▁get	-483
▁dif	-484
▁under	-485
ian	-486
uch	-487
▁comm	-488
fect	-489
▁found	-490
▁car	-491
▁Tom	-492
▁then	-493
ious	-494
ob	-495
▁Ben	-496
ons	-497
▁V	-498
ates	-499
▁An	-500
▁went	-501
▁rec	-502
les	-503
▁our	-504
▁start	-505
▁use	-506
▁made	-507
int	-508
ict	-509
▁3	-510
irst	-511
▁co	-512
ak	-513
ug	-514
▁many	-515
du	-516
rent	-517
▁am	-518
▁som	-519
ird	-520
amed	-521
way	-522
▁20	-523
▁ind	-524
oth	-525
▁these	-526
▁friends	-527
▁You	-528
vers	-529
▁every	-530
▁off	-531
iled	-532
▁most	-533
▁again	-534
▁Wh	-535
lud	-536
▁know	-537
ared	-538
rough	-539
▁child	-540
▁As	-541
▁good	-542
▁po	-543
ific	-544
▁rel	-545
ove	-546
▁des	-547
▁water	-548
▁fl	-549
▁two	-550
tern	-551
▁ke	-552
alth	-553
▁learn	-554
▁acc	-555
▁sur	-556
▁only	-557
elt	-558
ple	-559
▁such	-560
sel	-561
cess	-562
old	-563
ough	-564
ities	-565
erm	-566
▁first	-567
ied	-568
▁We	-569
▁act	-570
urn	-571
▁used	-572
ook	-573
▁pr	-574
▁So	-575
▁through	-576
?"	-577
▁work	-578
row	-579
iss	-580
▁named	-581
▁find	-582
velop	-583
▁my	-584
lect	-585
ave	-586
▁rem	-587
rit	-588
▁should	-589
stem	-590
fore	-591
ual	-592
ating	-593
ject	-594
ath	-595
▁diffe	-596
▁ran	-597
▁gen	-598
ular	-599
▁home	-600
ft	-601
▁because	-602
▁includ	-603
▁Timmy	-604
erv	-605
ational	-606
ething	-607
▁just	-608
hes	-609
▁tra	-610
▁Un	-611
ffect	-612
▁ac	-613
▁long	-614
▁ph	-615
▁asked	-616
xt	-617
▁down	-618
,"	-619
▁loved	-620
ative	-621
▁much	-622
▁something	-623
ble	-624
▁away	-625
ures	-626
▁felt	-627
ouse	-628
▁says	-629
vent	-630
▁em	-631
▁cons	-632
▁rep	-633
▁even	-634
ric	-635
▁bird	-636
ments	-637
),	-638
▁put	-639
▁each	-640
gether	-641
▁together	-642
▁looked	-643
oss	-644
ail	-645
▁boy	-646
gan	-647
▁prov	-648
ided	-649
▁care	-650
▁smiled	-651
▁When	-652
▁show	-653
▁bu	-654
▁sk	-655
▁ob	-656
▁where	-657
▁call	-658
▁reg	-659
▁take	-660
rib	-661
▁develop	-662
lic	-663
▁years	-664
▁att	-665
uring	-666
ake	-667
ink	-668
arm	-669
▁high	-670
▁way	-671
led	-672
▁str	-673
ife	-674
▁br	-675
ics	-676
ased	-677
▁things	-678
▁exc	-679
ool	-680
ram	-681
ible	-682
▁end	-683
▁import	-684
ty	-685
▁started	-686
ried	-687
ck	-688
▁add	-689
▁expl	-690
arch	-691
other	-692
▁system	-693
▁bo	-694
ought	-695
ility	-696
▁after	-697
▁–	-698
ving	-699
ert	-700
▁fam	-701
ways	-702
▁well	-703
▁Re	-704
ower	-705
orn	-706
▁4	-707
▁small	-708
▁supp	-709
▁feel	-710
its	-711
▁form	-712
▁hand	-713
pped	-714
▁201	-715
ract	-716
▁different	-717
ps	-718
▁di	-719
ax	-720
cy	-721
▁read	-722
▁200	-723
ween	-724
▁And	-725
ever	-726
ins	-727
aw	-728
▁gr	-729
▁op	-730
ange	-731
▁being	-732
▁fol	-733
▁old	-734
▁world	-735
▁che	-736
▁health	-737
ident	-738
▁pres	-739
ism	-740
▁pers	-741
▁pol	-742
▁5	-743
ually	-744
▁wal	-745
▁sub	-746
▁both	-747
▁between	-748
ution	-749
ng	-750
▁gl	-751
▁If	-752
ting	-753
▁always	-754
▁inv	-755
▁own	-756
▁came	-757
▁inst	-758
▁park	-759
chool	-760
oh	-761
▁Al	-762
pect	-763
▁important	-764
▁liv	-765
▁num	-766
▁ear	-767
▁mod	-768
▁Mom	-769
▁food	-770
▁sad	-771
▁trans	-772
ized	-773
▁before	-774
▁lot	-775
ished	-776
▁count	-777
ged	-778
▁right	-779
ants	-780
▁med	-781
ont	-782
▁follow	-783
ened	-784
▁gra	-785
▁cur	-786
▁cle	-787
self	-788
ced	-789
▁inter	-790
land	-791
▁exam	-792
ward	-793
▁thought	-794
▁How	-795
▁produ	-796
ology	-797
▁set	-798
▁rese	-799
▁children	-800
▁exp	-801
ines	-802
▁mon	-803
▁disc	-804
▁got	-805
chn	-806
▁lar	-807
ros	-808
gy	-809
▁special	-810
na	-811
▁bro	-812
ural	-813
▁There	-814
meric	-815
▁now	-816
▁sw	-817
▁does	-818
▁For	-819
▁cre	-820
ists	-821
▁dog	-822
ne	-823
duc	-824
▁hum	-825
kes	-826
uck	-827
▁while	-828
ning	-829
▁sec	-830
air	-831
udd	-832
ctions	-833
ness	-834
▁pat	-835
▁det	-836
be	-837
▁run	-838
ix	-839
formation	-840
cept	-841
▁playing	-842
▁still	-843
▁sign	-844
ank	-845
▁took	-846
▁cent	-847
▁ed	-848
▁exper	-849
ather	-850
ature	-851
imes	-852
ety	-853
ata	-854
▁sim	-855
ara	-856
▁18	-857
▁incre	-858
▁Pro	-859
▁Sam	-860
ves	-861
▁ty	-862
ten	-863
▁cat	-864
pr	-865
▁fin	-866
ars	-867
▁decided	-868
▁Se	-869
▁effect	-870
▁loc	-871
▁unt	-872
▁gener	-873
▁called	-874
ull	-875
▁anim	-876
▁sl	-877
▁Americ	-878
▁those	-879
▁look	-880
▁don	-881
ny	-882
ts	-883
▁bra	-884
▁better	-885
▁ext	-886
▁life	-887
▁best	-888
▁dist	-889
▁excited	-890
iew	-891
▁pub	-892
▁ass	-893
ody	-894
▁outside	-895
▁hug	-896
▁great	-897
▁same	-898
▁Com	-899
▁less	-900
▁house	-901
▁mo	-902
ices	-903
▁ide	-904
ven	-905
▁never	-906
▁var	-907
ues	-908
▁prog	-909
▁tree	-910
▁real	-911
ivers	-912
▁fact	-913
ined	-914
▁didn	-915
▁three	-916
▁ent	-917
▁cond	-918
.”	-919
▁ca	-920
ere	-921
blem	-922
cer	-923
ases	-924
read	-925
▁liked	-926
cent	-927
ef	-928
▁sun	-929
eld	-930
▁result	-931
▁until	-932
▁partic	-933
ages	-934
▁bel	-935
stand	-936
▁say	-937
▁process	-938
vern	-939
gg	-940
fl	-941
ane	-942
▁let	-943
▁requ	-944
ork	-945
▁art	-946
iron	-947
▁during	-948
ize	-949
▁person	-950
▁family	-951
▁lead	-952
▁commun	-953
▁information	-954
ale	-955
▁min	-956
der	-957
▁Her	-958
▁6	-959
▁techn	-960
day	-961
Th	-962
▁ball	-963
▁prote	-964
az	-965
up	-966
▁school	-967
▁problem	-968
▁aut	-969
ient	-970
▁Ar	-971
▁flow	-972
▁scared	-973
▁grow	-974
▁gre	-975
▁treat	-976
ically	-977
▁vis	-978
▁pop	-979
hip	-980
▁ref	-981
▁What	-982
..	-983
ruct	-984
ute	-985
▁level	-986
ince	-987
▁fore	-988
▁students	-989
▁place	-990
▁study	-991
▁try	-992
any	-993
con	-994
▁hard	-995
▁grou	-996
▁|	-997
▁dad	-998
▁come	-999
ised	-1000
io	-1001
ired	-1002
ield	-1003
▁av	-1004
▁list	-1005
▁Max	-1006
cient	-1007
▁kind	-1008
▁contin	-1009
▁point	-1010
ier	-1011
▁ser	-1012
und	-1013
▁wa	-1014
▁data	-1015
▁At	-1016
ash	-1017
ump	-1018
▁comple	-1019
ock	-1020
▁keep	-1021
▁using	-1022
▁Sp	-1023
▁His	-1024
▁val	-1025
ross	-1026
▁beh	-1027
▁must	-1028
ger	-1029
▁test	-1030
▁land	-1031
▁hist	-1032
▁wat	-1033
▁build	-1034
▁Sara	-1035
▁tre	-1036
▁New	-1037
▁Every	-1038
▁often	-1039
▁appro	-1040
▁sol	-1041
▁word	-1042
ids	-1043
▁mommy	-1044
ohn	-1045
▁power	-1046
▁De	-1047
▁knew	-1048
▁inside	-1049
ries	-1050
▁From	-1051
ner	-1052
ives	-1053
udden	-1054
▁dra	-1055
▁toys	-1056
▁turn	-1057
▁organ	-1058
omen	-1059
viron	-1060
aut	-1061
▁Be	-1062
▁number	-1063
▁lau	-1064
ides	-1065
pend	-1066
rol	-1067
▁main	-1068
▁(1	-1069
.,	-1070
com	-1071
ets	-1072
▁Anna	-1073
000	-1074
▁met	-1075
▁understand	-1076
▁wr	-1077
▁John	-1078
▁told	-1079
▁poss	-1080
imate	-1081
▁Ind	-1082
▁resp	-1083
ury	-1084
▁state	-1085
20	-1086
▁pain	-1087
▁near	-1088
by	-1089
ered	-1090
▁rest	-1091
▁might	-1092
arent	-1093
▁mem	-1094
▁mat	-1095
ital	-1096
ters	-1097
▁careful	-1098
▁gu	-1099
▁another	-1100
ral	-1101
▁cell	-1102
▁room	-1103
▁class	-1104
▁ris	-1105
ron	-1106
▁body	-1107
▁few	-1108
ma	-1109
▁ret	-1110
▁cour	-1111
▁plan	-1112
▁Then	-1113
▁gave	-1114
▁After	-1115
||	-1116
▁Is	-1117
▁support	-1118
▁dise	-1119
▁7	-1120
ted	-1121
▁human	-1122
oun	-1123
iversity	-1124
uss	-1125
▁10	-1126
▁design	-1127
▁Jack	-1128
ulation	-1129
▁occ	-1130
osed	-1131
▁program	-1132
oud	-1133
▁char	-1134
oll	-1135
▁large	-1136
uddenly	-1137
▁research	-1138
▁light	-1139
outh	-1140
▁eat	-1141
▁here	-1142
cies	-1143
▁bre	-1144
▁activ	-1145
▁ins	-1146
ched	-1147
▁These	-1148
▁dire	-1149
▁del	-1150
vironment	-1151
▁air	-1152
▁est	-1153
▁head	-1154
▁Can	-1155
▁mus	-1156
▁tried	-1157
▁love	-1158
▁ey	-1159
▁To	-1160
▁ve	-1161
▁govern	-1162
hers	-1163
▁def	-1164
▁animals	-1165
▁cr	-1166
▁safe	-1167
▁toy	-1168
▁mean	-1169
▁heard	-1170
▁next	-1171
man	-1172
cl	-1173
▁sn	-1174
ains	-1175
▁move	-1176
▁common	-1177
▁stand	-1178
br	-1179
ency	-1180
▁without	-1181
inal	-1182
▁pur	-1183
▁mar	-1184
▁bus	-1185
▁going	-1186
▁8	-1187
orry	-1188
▁pract	-1189
▁top	-1190
▁allow	-1191
▁fr	-1192
▁give	-1193
The	-1194
▁red	-1195
ike	-1196
roud	-1197
▁quest	-1198
▁box	-1199
▁ground	-1200
ken	-1201
thing	-1202
▁eas	-1203
erest	-1204
ergy	-1205
▁example	-1206
▁played	-1207
els	-1208
▁pot	-1209
ret	-1210
▁pret	-1211
acter	-1212
▁const	-1213
-1	-1214
itions	-1215
ining	-1216
▁including	-1217
▁elect	-1218
ivid	-1219
▁ele	-1220
bb	-1221
ider	-1222
,”	-1223
▁prom	-1224
▁report	-1225
▁couldn	-1226
▁pass	-1227
▁serv	-1228
▁wind	-1229
▁proud	-1230
▁belie	-1231
ex	-1232
ained	-1233
conom	-1234
▁adv	-1235
▁public	-1236
ctor	-1237
ination	-1238
arden	-1239
ality	-1240
▁‘	-1241
▁known	-1242
▁name	-1243
ional	-1244
▁strong	-1245
▁far	-1246
bers	-1247
▁equ	-1248
▁educ	-1249
▁experi	-1250
less	-1251
▁bas	-1252
▁able	-1253
me	-1254
iqu	-1255
▁Cl	-1256
▁beaut	-1257
▁learned	-1258
ah	-1259
▁ben	-1260
▁sorry	-1261
▁9	-1262
▁cor	-1263
▁el	-1264
▁pa	-1265
▁book	-1266
▁think	-1267
ton	-1268
▁chang	-1269
iod	-1270
▁present	-1271
itive	-1272
▁interest	-1273
ense	-1274
,000	-1275
aterial	-1276
▁Le	-1277
▁change	-1278
amp	-1279
the	-1280
▁Ad	-1281
▁sit	-1282
▁Con	-1283
▁fle	-1284
rence	-1285
▁open	-1286
lish	-1287
▁tem	-1288
0.	-1289
▁sing	-1290
▁became	-1291
▁However	-1292
▁bear	-1293
▁spec	-1294
▁Eng	-1295
▁idea	-1296
▁making	-1297
▁Res	-1298
▁cap	-1299
ov	-1300
▁garden	-1301
iny	-1302
ories	-1303
ffic	-1304
▁199	-1305
▁tal	-1306
ames	-1307
▁energy	-1308
▁Suddenly	-1309
▁dem	-1310
▁others	-1311
used	-1312
▁Sh	-1313
▁All	-1314
Wh	-1315
ason	-1316
▁nice	-1317
ium	-1318
bs	-1319
▁par	-1320
▁That	-1321
soci	-1322
ization	-1323
cience	-1324
ential	-1325
▁University	-1326
▁sym	-1327
tle	-1328
▁term	-1329
▁typ	-1330
iness	-1331
▁stay	-1332
▁mil	-1333
▁individ	-1334
▁product	-1335
ior	-1336
▁giv	-1337
irc	-1338
iful	-1339
▁iss	-1340
ources	-1341
▁Ex	-1342
▁phys	-1343
▁within	-1344
▁ant	-1345
raph	-1346
ording	-1347
▁es	-1348
▁Ph	-1349
▁social	-1350
ians	-1351
▁meas	-1352
▁sure	-1353
ethod	-1354
▁hig	-1355
angu	-1356
▁share	-1357
▁environment	-1358
oms	-1359
__	-1360
▁clean	-1361
▁impro	-1362
ox	-1363
ertain	-1364
ats	-1365
▁leg	-1366
▁American	-1367
▁ident	-1368
▁parent	-1369
ption	-1370
ung	-1371
ental	-1372
▁fish	-1373
▁bad	-1374
▁material	-1375
▁imm	-1376
▁dep	-1377
illion	-1378
ently	-1379
▁law	-1380
▁ang	-1381
lease	-1382
▁having	-1383
▁z	-1384
▁hugged	-1385
▁area	-1386
▁why	-1387
▁repl	-1388
orth	-1389
▁become	-1390
eral	-1391
▁last	-1392
▁quick	-1393
▁against	-1394
▁creat	-1395
▁hur	-1396
▁development	-1397
▁pos	-1398
ability	-1399
▁mag	-1400
opped	-1401
▁disease	-1402
uro	-1403
▁women	-1404
▁beautiful	-1405
jor	-1406
aring	-1407
▁ever	-1408
gin	-1409
▁Z	-1410
▁conf	-1411
▁soon	-1412
▁eng	-1413
▁prof	-1414
ccess	-1415
▁&	-1416
ling	-1417
ern	-1418
▁sky	-1419
▁explore	-1420
▁pri	-1421
line	-1422
▁include	-1423
▁group	-1424
ering	-1425
▁early	-1426
eng	-1427
to	-1428
▁low	-1429
▁story	-1430
▁sound	-1431
▁project	-1432
▁Mia	-1433
oney	-1434
aves	-1435
▁control	-1436
▁dri	-1437
ream	-1438
▁means	-1439
▁vari	-1440
leep	-1441
ision	-1442
ration	-1443
▁cult	-1444
▁blood	-1445
▁order	-1446
▁risk	-1447
▁second	-1448
▁Q	-1449
▁government	-1450
rop	-1451
▁free	-1452
▁Pl	-1453
▁whe	-1454
ological	-1455
ission	-1456
ified	-1457
▁cal	-1458
ued	-1459
▁lots	-1460
▁et	-1461
▁seem	-1462
▁opp	-1463
▁proper	-1464
▁full	-1465
rist	-1466
lished	-1467
▁econom	-1468
▁tell	-1469
ope	-1470
crib	-1471
atic	-1472
▁pict	-1473
▁fast	-1474
▁left	-1475
▁lived	-1476
▁sever	-1477
aces	-1478
▁pic	-1479
▁field	-1480
▁method	-1481
▁dr	-1482
It	-1483
▁hy	-1484
▁oper	-1485
ills	-1486
hor	-1487
ify	-1488
▁really	-1489
oice	-1490
▁orig	-1491
▁plant	-1492
▁anal	-1493
▁seen	-1494
ator	-1495
etimes	-1496
▁With	-1497
▁jo	-1498
ina	-1499
▁perform	-1500
dy	-1501
atural	-1502
▁—	-1503
▁[	-1504
▁surpr	-1505
ead	-1506
▁diff	-1507
▁done	-1508
▁history	-1509
▁store	-1510
▁provide	-1511
▁avail	-1512
▁United	-1513
▁fur	-1514
ards	-1515
▁looking	-1516
aster	-1517
itional	-1518
▁particular	-1519
icle	-1520
▁major	-1521
▁Do	-1522
ource	-1523
▁learning	-1524
▁mark	-1525
▁enough	-1526
▁young	-1527
ember	-1528
▁later	-1529
work	-1530
cially	-1531
▁dev	-1532
▁possible	-1533
joy	-1534
ware	-1535
idence	-1536
▁heart	-1537
rel	-1538
▁close	-1539
oot	-1540
▁Comm	-1541
anc	-1542
▁percent	-1543
▁since	-1544
▁occur	-1545
▁Some	-1546
ients	-1547
ences	-1548
▁cause	-1549
ples	-1550
▁fly	-1551
ote	-1552
▁kept	-1553
▁forest	-1554
elf	-1555
▁langu	-1556
▁jump	-1557
▁period	-1558
osp	-1559
▁15	-1560
ee	-1561
▁pie	-1562
▁current	-1563
▁success	-1564
ention	-1565
oe	-1566
▁several	-1567
▁words	-1568
▁infl	-1569
sy	-1570
▁thanked	-1571
port	-1572
ogn	-1573
▁four	-1574
▁circ	-1575
ush	-1576
▁wee	-1577
iting	-1578
▁men	-1579
illed	-1580
▁along	-1581
▁cost	-1582
▁squ	-1583
▁teac	-1584
▁course	-1585
duced	-1586
▁scient	-1587
ster	-1588
▁began	-1589
use	-1590
▁object	-1591
▁Or	-1592
▁times	-1593
view	-1594
▁side	-1595
ole	-1596
▁invol	-1597
▁soft	-1598
ghed	-1599
▁lab	-1600
▁today	-1601
▁â	-1602
ograph	-1603
▁fire	-1604
▁country	-1605
rog	-1606
▁hold	-1607
▁fre	-1608
▁press	-1609
▁enjoy	-1610
▁past	-1611
▁.	-1612
▁laughed	-1613
▁post	-1614
idd	-1615
▁bed	-1616
rap	-1617
ooks	-1618
▁benef	-1619
▁God	-1620
▁paper	-1621
▁age	-1622
though	-1623
▁nod	-1624
▁thin	-1625
▁face	-1626
▁view	-1627
une	-1628
▁species	-1629
▁Te	-1630
arc	-1631
▁non	-1632
ploy	-1633
par	-1634
▁case	-1635
▁clos	-1636
▁Col	-1637
▁lim	-1638
oring	-1639
▁available	-1640
▁specific	-1641
▁night	-1642
ones	-1643
▁cry	-1644
▁following	-1645
▁areas	-1646
iver	-1647
▁Em	-1648
▁eyes	-1649
▁across	-1650
▁struct	-1651
Yes	-1652
▁May	-1653
▁Fr	-1654
▁quickly	-1655
▁days	-1656
▁States	-1657
▁protect	-1658
▁based	-1659
▁rece	-1660
▁makes	-1661
▁higher	-1662
▁among	-1663
▁bit	-1664
ached	-1665
▁tri	-1666
▁hands	-1667
▁loud	-1668
▁direct	-1669
▁doll	-1670
app	-1671
▁Christ	-1672
icy	-1673
▁determ	-1674
".	-1675
▁needed	-1676
▁parents	-1677
▁writ	-1678
▁warm	-1679
▁treatment	-1680
2.	-1681
oid	-1682
▁bi	-1683
You	-1684
▁certain	-1685
wards	-1686
icult	-1687
▁prevent	-1688
ilar	-1689
▁signific	-1690
cle	-1691
not	-1692
▁feeling	-1693
▁By	-1694
ither	-1695
We	-1696
rown	-1697
▁green	-1698
▁affect	-1699
ured	-1700
▁rad	-1701
ggest	-1702
▁suggest	-1703
ately	-1704
wer	-1705
▁thing	-1706
▁access	-1707
iter	-1708
uses	-1709
ably	-1710
▁opened	-1711
▁Cent	-1712
ms	-1713
▁war	-1714
▁local	-1715
ours	-1716
▁pretty	-1717
▁cells	-1718
▁trad	-1719
▁month	-1720
stit	-1721
▁Wor	-1722
▁Tr	-1723
▁fall	-1724
▁everyone	-1725
ended	-1726
▁comput	-1727
▁17	-1728
ived	-1729
▁Bl	-1730
ww	-1731
▁National	-1732
▁vol	-1733
▁fav	-1734
▁ri	-1735
▁wond	-1736
▁'	-1737
urope	-1738
▁given	-1739
iced	-1740
ances	-1741
▁short	-1742
▁problems	-1743
resent	-1744
▁Luc	-1745
▁blue	-1746
▁white	-1747
▁obs	-1748
▁brave	-1749
gr	-1750
over	-1751
▁inf	-1752
▁type	-1753
▁return	-1754
pecially	-1755
▁intern	-1756
cri	-1757
ression	-1758
oman	-1759
ortun	-1760
▁line	-1761
▁foc	-1762
oon	-1763
1.	-1764
▁16	-1765
ape	-1766
▁showed	-1767
▁mot	-1768
▁key	-1769
▁Ne	-1770
▁amount	-1771
▁flew	-1772
▁invest	-1773
ledge	-1774
▁sleep	-1775
ument	-1776
most	-1777
vious	-1778
▁levels	-1779
▁Med	-1780
▁walked	-1781
uture	-1782
▁Fl	-1783
▁Af	-1784
▁comb	-1785
▁associ	-1786
▁mess	-1787
iet	-1788
▁clim	-1789
▁noise	-1790
▁fil	-1791
▁redu	-1792
kay	-1793
▁door	-1794
▁slow	-1795
let	-1796
asing	-1797
▁clear	-1798
▁sat	-1799
▁While	-1800
▁indust	-1801
olution	-1802
▁polit	-1803
▁mult	-1804
▁advent	-1805
▁hurt	-1806
▁Europe	-1807
▁ste	-1808
▁difficult	-1809
▁fac	-1810
▁ess	-1811
▁natural	-1812
ication	-1813
erc	-1814
▁above	-1815
▁Bob	-1816
por	-1817
selves	-1818
▁prin	-1819
oor	-1820
where	-1821
▁net	-1822
▁$	-1823
▁needs	-1824
▁black	-1825
▁swe	-1826
▁er	-1827
▁listen	-1828
▁stop	-1829
▁cut	-1830
▁kids	-1831
▁living	-1832
ots	-1833
▁function	-1834
▁create	-1835
▁angry	-1836
▁appear	-1837
▁watch	-1838
illy	-1839
▁walking	-1840
▁impact	-1841
▁working	-1842
▁rock	-1843
▁12	-1844
▁enc	-1845
▁record	-1846
▁education	-1847
▁colle	-1848
▁tool	-1849
▁Lucy	-1850
▁language	-1851
▁US	-1852
ique	-1853
orts	-1854
▁space	-1855
▁ans	-1856
oph	-1857
▁Ear	-1858
▁likely	-1859
▁due	-1860
atory	-1861
▁increase	-1862
▁doing	-1863
aim	-1864
▁draw	-1865
ively	-1866
anger	-1867
tt	-1868
▁En	-1869
▁rain	-1870
▁significant	-1871
▁color	-1872
face	-1873
reen	-1874
▁though	-1875
▁wood	-1876
▁death	-1877
more	-1878
ciety	-1879
▁usually	-1880
ded	-1881
What	-1882
▁especially	-1883
▁century	-1884
▁discuss	-1885
aking	-1886
▁experience	-1887
agement	-1888
▁plants	-1889
▁Sy	-1890
▁mind	-1891
▁population	-1892
▁author	-1893
▁complete	-1894
▁vir	-1895
ellow	-1896
▁describ	-1897
min	-1898
▁money	-1899
▁cancer	-1900
▁game	-1901
▁behav	-1902
10	-1903
▁step	-1904
▁systems	-1905
ummy	-1906
▁flowers	-1907
utes	-1908
rought	-1909
▁Fin	-1910
alf	-1911
aught	-1912
▁bar	-1913
▁character	-1914
▁exist	-1915
▁consider	-1916
eter	-1917
▁million	-1918
▁results	-1919
▁Now	-1920
Let	-1921
af	-1922
omm	-1923
▁temper	-1924
ring	-1925
▁farm	-1926
▁brain	-1927
▁sal	-1928
▁self	-1929
▁team	-1930
ott	-1931
▁begin	-1932
▁conditions	-1933
▁bat	-1934
▁future	-1935
etic	-1936
3.	-1937
▁dam	-1938
nal	-1939
▁city	-1940
▁birds	-1941
▁trees	-1942
▁cra	-1943
ler	-1944
▁community	-1945
▁norm	-1946
ilt	-1947
▁prop	-1948
▁himself	-1949
rug	-1950
▁ill	-1951
▁(2	-1952
▁estab	-1953
▁music	-1954
ises	-1955
▁Germ	-1956
▁applic	-1957
ze	-1958
▁held	-1959
▁sometimes	-1960
ik	-1961
ators	-1962
▁shiny	-1963
ruction	-1964
▁consum	-1965
ptoms	-1966
obal	-1967
▁behind	-1968
ister	-1969
▁Brit	-1970
▁Afric	-1971
aby	-1972
▁similar	-1973
aining	-1974
hem	-1975
▁text	-1976
▁event	-1977
▁crit	-1978
iding	-1979
sh	-1980
1,	-1981
ule	-1982
▁respons	-1983
▁changes	-1984
▁ways	-1985
▁depend	-1986
uff	-1987
omes	-1988
of	-1989
▁building	-1990
▁Mar	-1991
uct	-1992
▁least	-1993
▁amaz	-1994
edi	-1995
▁necess	-1996
▁however	-1997
▁technology	-1998
No	-1999
▁picked	-2000
▁job	-2001
▁teach	-2002
▁nut	-2003
ison	-2004
▁win	-2005
▁whole	-2006
▁Im	-2007
itc	-2008
▁works	-2009
▁countries	-2010
▁Let	-2011
hing	-2012
val	-2013
ables	-2014
▁various	-2015
ilities	-2016
▁stopped	-2017
▁meet	-2018
▁Ab	-2019
rew	-2020
▁wide	-2021
▁sum	-2022
▁improve	-2023
ready	-2024
▁climb	-2025
▁Am	-2026
oura	-2027
▁books	-2028
agn	-2029
▁Ge	-2030
▁cool	-2031
ges	-2032
▁mic	-2033
▁Gen	-2034
▁Mommy	-2035
▁live	-2036
▁dark	-2037
ires	-2038
▁Dad	-2039
▁dig	-2040
▁heav	-2041
▁stat	-2042
▁lay	-2043
▁lost	-2044
lo	-2045
▁cy	-2046
ley	-2047
▁walk	-2048
acy	-2049
▁smile	-2050
▁getting	-2051
ateg	-2052
pping	-2053
aps	-2054
▁business	-2055
▁hot	-2056
bit	-2057
put	-2058
▁someone	-2059
▁profess	-2060
▁question	-2061
oint	-2062
▁bright	-2063
4.	-2064
ored	-2065
itten	-2066
▁further	-2067
sc	-2068
▁visit	-2069
▁require	-2070
▁Dr	-2071
▁knowledge	-2072
nect	-2073
▁helped	-2074
ially	-2075
▁already	-2076
▁prim	-2077
▁chem	-2078
▁voice	-2079
▁noticed	-2080
ising	-2081
▁coming	-2082
ysis	-2083
▁researc	-2084
chie	-2085
▁mother	-2086
▁individual	-2087
5.	-2088
▁ur	-2089
▁cases	-2090
▁cannot	-2091
▁taken	-2092
room	-2093
▁English	-2094
fer	-2095
▁longer	-2096
istic	-2097
▁grass	-2098
▁Intern	-2099
ec	-2100
▁sens	-2101
▁World	-2102
▁198	-2103
€™	-2104
isc	-2105
NA	-2106
▁deep	-2107
▁value	-2108
▁dro	-2109
mber	-2110
▁general	-2111
upp	-2112
▁sand	-2113
utions	-2114
▁studies	-2115
▁fund	-2116
ging	-2117
▁once	-2118
▁either	-2119
ese	-2120
lement	-2121
▁employ	-2122
rodu	-2123
▁reason	-2124
▁effects	-2125
▁wall	-2126
▁represent	-2127
▁arri	-2128
▁comes	-2129
▁below	-2130
▁cold	-2131
ocks	-2132
▁lower	-2133
▁taking	-2134
▁expect	-2135
for	-2136
▁types	-2137
▁brother	-2138
▁collect	-2139
ney	-2140
▁else	-2141
▁whether	-2142
ae	-2143
▁Stud	-2144
▁1.	-2145
▁worked	-2146
50	-2147
▁relations	-2148
▁anything	-2149
rict	-2150
▁War	-2151
▁eff	-2152
▁closer	-2153
▁favor	-2154
ules	-2155
pper	-2156
▁break	-2157
▁almost	-2158
▁Sc	-2159
ference	-2160
▁(19	-2161
▁subject	-2162
▁ice	-2163
urity	-2164
▁physical	-2165
▁chall	-2166
ude	-2167
▁la	-2168
▁reached	-2169
▁questions	-2170
▁dest	-2171
▁pay	-2172
▁recogn	-2173
▁reach	-2174
▁healthy	-2175
amm	-2176
▁Pe	-2177
That	-2178
▁themselves	-2179
▁symptoms	-2180
ned	-2181
irth	-2182
▁phot	-2183
▁opt	-2184
▁believe	-2185
▁Car	-2186
▁ready	-2187
▁offic	-2188
▁followed	-2189
▁bring	-2190
▁influ	-2191
▁lad	-2192
▁pred	-2193
▁jour	-2194
▁role	-2195
...	-2196
▁sent	-2197
▁evidence	-2198
▁dress	-2199
ils	-2200
6.	-2201
▁prob	-2202
▁account	-2203
▁Cal	-2204
oke	-2205
iol	-2206
▁path	-2207
▁concer	-2208
ands	-2209
▁fru	-2210
ray	-2211
▁fix	-2212
ony	-2213
ode	-2214
▁five	-2215
▁rather	-2216
▁leaves	-2217
▁loss	-2218
▁running	-2219
▁happened	-2220
▁science	-2221
▁patients	-2222
▁groups	-2223
▁Health	-2224
▁30	-2225
▁buy	-2226
2,	-2227
ows	-2228
oes	-2229
▁nodded	-2230
9.	-2231
▁Aust	-2232
▁fight	-2233
▁products	-2234
zy	-2235
atures	-2236
//	-2237
▁model	-2238
uge	-2239
▁activities	-2240
ification	-2241
ibility	-2242
▁fa	-2243
▁ens	-2244
ming	-2245
8.	-2246
▁Resear	-2247
▁nature	-2248
▁table	-2249
▁fair	-2250
▁growth	-2251
wh	-2252
▁single	-2253
uation	-2254
▁neg	-2255
▁Man	-2256
▁div	-2257
▁fat	-2258
ift	-2259
iles	-2260
come	-2261
▁activity	-2262
▁created	-2263
urch	-2264
▁itself	-2265
verage	-2266
▁particip	-2267
eds	-2268
▁No	-2269
▁brought	-2270
▁ce	-2271
▁forg	-2272
▁slide	-2273
▁inde	-2274
aged	-2275
▁rabb	-2276
gen	-2277
▁mass	-2278
▁grand	-2279
▁site	-2280
▁achie	-2281
▁skin	-2282
▁range	-2283
▁addition	-2284
3,	-2285
ask	-2286
▁cook	-2287
str	-2288
▁Pr	-2289
▁indic	-2290
▁late	-2291
▁resources	-2292
▁butter	-2293
▁modern	-2294
▁Go	-2295
▁potential	-2296
▁continued	-2297
▁contrib	-2298
▁ter	-2299
▁ann	-2300
://	-2301
iam	-2302
▁arg	-2303
uals	-2304
ites	-2305
▁North	-2306
▁matter	-2307
osis	-2308
▁market	-2309
▁climate	-2310
▁practice	-2311
▁ask	-2312
▁quality	-2313
akes	-2314
▁members	-2315
▁rate	-2316
▁size	-2317
roll	-2318
▁medical	-2319
▁developed	-2320
▁article	-2321
aced	-2322
▁miss	-2323
sych	-2324
bon	-2325
▁national	-2326
▁according	-2327
▁Jane	-2328
▁watched	-2329
idge	-2330
anced	-2331
▁town	-2332
▁surface	-2333
▁Sue	-2334
▁respect	-2335
gest	-2336
▁fell	-2337
de	-2338
▁half	-2339
▁14	-2340
7.	-2341
▁production	-2342
▁recomm	-2343
amin	-2344
▁truck	-2345
ips	-2346
▁mor	-2347
▁touch	-2348
▁picture	-2349
▁Cont	-2350
▁sea	-2351
▁relig	-2352
▁towards	-2353
▁tast	-2354
▁Acc	-2355
▁gas	-2356
ivil	-2357
▁shout	-2358
▁sweet	-2359
▁actually	-2360
ades	-2361
▁York	-2362
▁baby	-2363
▁medic	-2364
oose	-2365
▁laugh	-2366
▁197	-2367
▁issues	-2368
ama	-2369
▁danger	-2370
▁dom	-2371
▁frequ	-2372
▁political	-2373
▁sou	-2374
▁researchers	-2375
reed	-2376
▁stra	-2377
iddle	-2378
▁wrong	-2379
▁weight	-2380
▁South	-2381
apt	-2382
acc	-2383
▁everything	-2384
▁source	-2385
▁init	-2386
▁trying	-2387
▁perfect	-2388
▁wonder	-2389
▁Many	-2390
▁boat	-2391
sidered	-2392
▁engine	-2393
▁address	-2394
30	-2395
ublic	-2396
▁abs	-2397
ensive	-2398
▁skills	-2399
▁infe	-2400
▁reduce	-2401
ER	-2402
ober	-2403
▁ver	-2404
▁animal	-2405
▁hours	-2406
Thank	-2407
▁fig	-2408
▁doc	-2409
▁=	-2410
▁Spot	-2411
▁concept	-2412
▁famil	-2413
▁replied	-2414
ene	-2415
▁wait	-2416
▁looks	-2417
mb	-2418
bye	-2419
fficient	-2420
▁separ	-2421
▁America	-2422
):	-2423
▁Sarah	-2424
▁coll	-2425
▁super	-2426
▁okay	-2427
▁histor	-2428
▁drug	-2429
▁Earth	-2430
▁states	-2431
light	-2432
ery	-2433
▁Rep	-2434
▁adult	-2435
▁considered	-2436
▁tot	-2437
like	-2438
▁11	-2439
▁doctor	-2440
▁emb	-2441
reme	-2442
5,	-2443
▁increased	-2444
▁Gra	-2445
▁bal	-2446
apan	-2447
▁yet	-2448
arr	-2449
▁hop	-2450
▁Hist	-2451
▁simple	-2452
olly	-2453
bo	-2454
▁Act	-2455
▁published	-2456
▁wild	-2457
▁measure	-2458
▁hair	-2459
▁pressure	-2460
eb	-2461
▁approach	-2462
▁Everyone	-2463
▁mach	-2464
▁spread	-2465
cks	-2466
▁entire	-2467
▁lesson	-2468
▁parts	-2469
▁stick	-2470
▁shows	-2471
urs	-2472
▁computer	-2473
pos	-2474
▁exerc	-2475
▁understanding	-2476
ume	-2477
erve	-2478
▁economic	-2479
▁dry	-2480
▁Here	-2481
▁associated	-2482
▁popular	-2483
▁week	-2484
▁port	-2485
▁hear	-2486
▁feed	-2487
▁rele	-2488
▁true	-2489
▁claim	-2490
▁yellow	-2491
oles	-2492
▁rabbit	-2493
▁curious	-2494
▁travel	-2495
▁alone	-2496
▁required	-2497
go	-2498
▁rights	-2499
▁student	-2500
uly	-2501
reg	-2502
▁2.	-2503
hib	-2504
ila	-2505
ivity	-2506
▁diet	-2507
▁content	-2508
itary	-2509
SA	-2510
▁news	-2511
itchen	-2512
▁opportun	-2513
umb	-2514
iction	-2515
rect	-2516
▁spot	-2517
▁inj	-2518
▁talk	-2519
▁maint	-2520
▁priv	-2521
sequ	-2522
▁takes	-2523
▁easy	-2524
▁imag	-2525
▁provides	-2526
▁pattern	-2527
artment	-2528
chan	-2529
ales	-2530
uel	-2531
▁X	-2532
▁ability	-2533
▁instead	-2534
▁global	-2535
▁accept	-2536
▁Me	-2537
▁patient	-2538
▁birth	-2539
ulations	-2540
▁materials	-2541
org	-2542
▁catch	-2543
▁complex	-2544
-2	-2545
201	-2546
▁related	-2547
▁sense	-2548
▁bag	-2549
▁won	-2550
▁built	-2551
▁stress	-2552
▁goodbye	-2553
▁Japan	-2554
▁cand	-2555
▁focus	-2556
▁realized	-2557
▁relationship	-2558
▁Just	-2559
▁reading	-2560
▁pet	-2561
▁Dep	-2562
iation	-2563
▁leave	-2564
fort	-2565
▁cast	-2566
▁anymore	-2567
▁Gu	-2568
bbed	-2569
▁emer	-2570
▁More	-2571
▁heat	-2572
▁front	-2573
▁da	-2574
▁kitchen	-2575
▁effective	-2576
▁Most	-2577
▁arch	-2578
gar	-2579
▁moment	-2580
▁original	-2581
▁State	-2582
▁ge	-2583
unch	-2584
▁cars	-2585
▁happen	-2586
▁connect	-2587
▁eating	-2588
pro	-2589
▁months	-2590
▁cake	-2591
▁vers	-2592
▁htt	-2593
▁Joe	-2594
astic	-2595
▁bow	-2596
▁favorite	-2597
het	-2598
▁services	-2599
▁din	-2600
▁196	-2601
▁Canad	-2602
▁Although	-2603
fact	-2604
▁oil	-2605
4,	-2606
▁structure	-2607
set	-2608
▁floor	-2609
ply	-2610
▁sees	-2611
inary	-2612
ival	-2613
▁flu	-2614
8,	-2615
itting	-2616
▁mix	-2617
▁worry	-2618
▁pick	-2619
▁Des	-2620
ey	-2621
▁necessary	-2622
▁cross	-2623
▁please	-2624
ighb	-2625
izing	-2626
▁attack	-2627
ervation	-2628
son	-2629
9,	-2630
▁deg	-2631
▁feet	-2632
▁management	-2633
▁six	-2634
▁adventure	-2635
▁swim	-2636
▁British	-2637
▁throughout	-2638
ana	-2639
hood	-2640
▁condition	-2641
▁liter	-2642
pid	-2643
▁pen	-2644
▁road	-2645
▁Ed	-2646
inc	-2647
▁earth	-2648
orning	-2649
▁produce	-2650
vere	-2651
▁factors	-2652
key	-2653
hold	-2654
Look	-2655
▁Per	-2656
____	-2657
▁Finally	-2658
▁normal	-2659
▁turned	-2660
▁100	-2661
▁Mr	-2662
empt	-2663
▁song	-2664
▁snow	-2665
▁poor	-2666
kn	-2667
▁regard	-2668
▁Instit	-2669
▁analysis	-2670
▁corn	-2671
ann	-2672
▁conc	-2673
6,	-2674
▁writing	-2675
▁region	-2676
usion	-2677
▁chemical	-2678
▁princi	-2679
▁prep	-2680
plic	-2681
▁increasing	-2682
reng	-2683
▁carefully	-2684
itted	-2685
isy	-2686
▁saf	-2687
▁finally	-2688
▁Research	-2689
--	-2690
▁Your	-2691
▁soil	-2692
▁veget	-2693
▁Ag	-2694
rences	-2695
▁flower	-2696
▁log	-2697
▁led	-2698
▁ate	-2699
▁grabbed	-2700
yn	-2701
Can	-2702
ground	-2703
dom	-2704
▁successful	-2705
▁neighb	-2706
▁harm	-2707
ederal	-2708
▁personal	-2709
▁glad	-2710
▁regular	-2711
▁recent	-2712
▁media	-2713
based	-2714
7,	-2715
▁King	-2716
ches	-2717
▁ap	-2718
abor	-2719
▁previous	-2720
▁provided	-2721
▁assess	-2722
▁teacher	-2723
▁service	-2724
▁Will	-2725
▁viol	-2726
asc	-2727
estern	-2728
overed	-2729
▁Austral	-2730
ai	-2731
▁page	-2732
▁pond	-2733
▁surv	-2734
▁hor	-2735
▁II	-2736
▁Sec	-2737
▁tall	-2738
▁blocks	-2739
yle	-2740
aches	-2741
▁lives	-2742
uted	-2743
.)	-2744
▁Other	-2745
▁mouse	-2746
▁tar	-2747
▁50	-2748
ror	-2749
▁jumped	-2750
▁Even	-2751
itch	-2752
cean	-2753
irm	-2754
hel	-2755
othes	-2756
▁Pres	-2757
▁caused	-2758
unny	-2759
▁sex	-2760
▁delic	-2761
▁carry	-2762
action	-2763
▁ut	-2764
▁sam	-2765
▁tend	-2766
▁action	-2767
▁Qu	-2768
icles	-2769
▁morning	-2770
abet	-2771
▁Da	-2772
ief	-2773
ails	-2774
▁helps	-2775
▁remember	-2776
▁Jew	-2777
▁contain	-2778
▁industry	-2779
enn	-2780
▁society	-2781
▁foot	-2782
▁print	-2783
▁colors	-2784
▁egg	-2785
▁tired	-2786
▁vide	-2787
▁According	-2788
vention	-2789
▁encoura	-2790
▁pul	-2791
order	-2792
▁river	-2793
▁position	-2794
▁window	-2795
▁mouth	-2796
▁terms	-2797
▁online	-2798
▁training	-2799
▁temperature	-2800
▁resist	-2801
▁company	-2802
▁party	-2803
▁stri	-2804
▁compet	-2805
▁My	-2806
bered	-2807
▁total	-2808
rapy	-2809
▁individuals	-2810
▁camp	-2811
▁hole	-2812
minist	-2813
▁lin	-2814
▁serious	-2815
aving	-2816
opy	-2817
▁avoid	-2818
adem	-2819
ancy	-2820
▁mount	-2821
▁threat	-2822
▁lif	-2823
▁behavior	-2824
▁answer	-2825
▁Jes	-2826
▁designed	-2827
▁etc	-2828
ES	-2829
▁remem	-2830
▁conduct	-2831
lt	-2832
▁search	-2833
▁king	-2834
itation	-2835
▁nothing	-2836
▁finished	-2837
elling	-2838
▁growing	-2839
erved	-2840
▁culture	-2841
▁meaning	-2842
This	-2843
▁Part	-2844
▁environmental	-2845
▁experim	-2846
uth	-2847
aling	-2848
▁surprise	-2849
onse	-2850
▁independ	-2851
▁card	-2852
vey	-2853
cing	-2854
▁filled	-2855
▁Min	-2856
▁diagn	-2857
▁streng	-2858
▁shown	-2859
▁includes	-2860
▁arrived	-2861
▁Int	-2862
ucle	-2863
▁rev	-2864
verse	-2865
▁Lila	-2866
▁appl	-2867
▁contact	-2868
▁mum	-2869
iant	-2870
▁write	-2871
ronic	-2872
▁programs	-2873
▁numbers	-2874
cil	-2875
▁gone	-2876
▁schools	-2877
istics	-2878
▁lady	-2879
ricult	-2880
▁Co	-2881
▁ban	-2882
▁13	-2883
▁places	-2884
▁written	-2885
▁relative	-2886
▁School	-2887
▁wet	-2888
11	-2889
▁simply	-2890
▁piece	-2891
▁mechan	-2892
▁positive	-2893
▁added	-2894
▁cloud	-2895
▁safety	-2896
▁Jan	-2897
▁Their	-2898
▁roll	-2899
▁First	-2900
▁tax	-2901
▁methods	-2902
▁sold	-2903
▁scientists	-2904
▁194	-2905
▁average	-2906
▁0	-2907
iling	-2908
atives	-2909
▁benefits	-2910
aff	-2911
lying	-2912
imately	-2913
aries	-2914
▁cover	-2915
▁standard	-2916
wor	-2917
▁cou	-2918
▁yummy	-2919
▁image	-2920
▁unique	-2921
uments	-2922
▁attention	-2923
▁micro	-2924
▁variety	-2925
▁Br	-2926
▁App	-2927
▁Not	-2928
▁Par	-2929
▁movement	-2930
▁eye	-2931
▁stories	-2932
▁Why	-2933
▁appe	-2934
▁Pol	-2935
▁Mary	-2936
▁coun	-2937
▁heavy	-2938
▁causes	-2939
Don	-2940
▁compan	-2941
▁broken	-2942
▁hope	-2943
mon	-2944
hy	-2945
rie	-2946
▁Sm	-2947
▁uses	-2948
▁wants	-2949
▁greater	-2950
▁El	-2951
oom	-2952
▁ideas	-2953
lebr	-2954
▁hat	-2955
▁Pre	-2956
▁gives	-2957
arily	-2958
▁doesn	-2959
▁Cons	-2960
▁check	-2961
ducing	-2962
▁extra	-2963
ID	-2964
▁subst	-2965
rench	-2966
▁magn	-2967
▁reported	-2968
augh	-2969
▁Comp	-2970
▁issue	-2971
AT	-2972
▁distrib	-2973
▁target	-2974
▁shouted	-2975
▁pictures	-2976
▁Char	-2977
ights	-2978
▁tools	-2979
irt	-2980
▁Ac	-2981
▁origin	-2982
reet	-2983
ulate	-2984
▁bug	-2985
▁damage	-2986
▁review	-2987
att	-2988
rast	-2989
▁involved	-2990
▁dream	-2991
fly	-2992
▁spl	-2993
▁enjoyed	-2994
▁arm	-2995
▁pieces	-2996
▁Science	-2997
itor	-2998
useum	-2999
▁fem	-3000
ban	-3001
▁dangerous	-3002
▁inte	-3003
▁tight	-3004
▁poll	-3005
▁minutes	-3006
▁pack	-3007
▁events	-3008
▁particularly	-3009
▁Count	-3010
▁surprised	-3011
▁spir	-3012
▁race	-3013
▁foods	-3014
ems	-3015
▁forms	-3016
uz	-3017
rim	-3018
▁shared	-3019
▁lack	-3020
▁Pa	-3021
▁attempt	-3022
▁funny	-3023
ha	-3024
▁During	-3025
▁woman	-3026
▁ast	-3027
▁demon	-3028
▁psych	-3029
ufact	-3030
▁interesting	-3031
▁China	-3032
▁breat	-3033
▁Our	-3034
▁Tw	-3035
▁identify	-3036
▁moved	-3037
▁Us	-3038
▁multip	-3039
▁peace	-3040
▁bur	-3041
▁displ	-3042
ceed	-3043
aging	-3044
▁remembered	-3045
▁ago	-3046
▁electric	-3047
▁quite	-3048
▁island	-3049
▁international	-3050
▁wonderful	-3051
▁implement	-3052
▁refer	-3053
▁agreed	-3054
rial	-3055
▁sources	-3056
▁basic	-3057
▁Jim	-3058
imum	-3059
overy	-3060
ashing	-3061
▁bacter	-3062
▁extreme	-3063
▁generally	-3064
▁smo	-3065
▁continue	-3066
▁herself	-3067
ressed	-3068
▁/	-3069
▁Sally	-3070
Mom	-3071
▁ones	-3072
▁aff	-3073
rote	-3074
▁waved	-3075
▁Art	-3076
ners	-3077
▁points	-3078
ops	-3079
▁Center	-3080
ius	-3081
ocol	-3082
▁cust	-3083
uary	-3084
ength	-3085
▁prot	-3086
▁developing	-3087
ulated	-3088
▁burn	-3089
▁celebr	-3090
▁investig	-3091
▁star	-3092
isions	-3093
▁Russ	-3094
pose	-3095
▁teachers	-3096
▁huge	-3097
▁scientific	-3098
▁response	-3099
aur	-3100
▁earl	-3101
ns	-3102
▁helping	-3103
▁25	-3104
ffe	-3105
▁coo	-3106
▁bott	-3107
▁policy	-3108
▁Aug	-3109
▁Gl	-3110
ustr	-3111
▁produced	-3112
▁3.	-3113
▁probably	-3114
airs	-3115
ores	-3116
▁suff	-3117
▁series	-3118
▁ord	-3119
▁hon	-3120
▁Tommy	-3121
▁games	-3122
▁ensure	-3123
▁friendly	-3124
pri	-3125
▁ancient	-3126
▁thinking	-3127
▁Har	-3128
▁bunny	-3129
bol	-3130
▁force	-3131
▁goes	-3132
▁vill	-3133
▁third	-3134
▁sil	-3135
▁easily	-3136
enced	-3137
▁included	-3138
▁difference	-3139
▁consist	-3140
▁useful	-3141
▁faster	-3142
▁amazing	-3143
itude	-3144
▁carbon	-3145
▁lat	-3146
▁fear	-3147
▁reve	-3148
▁yes	-3149
▁--	-3150
▁wasn	-3151
▁cried	-3152
▁defin	-3153
▁hung	-3154
▁cit	-3155
▁pan	-3156
▁capt	-3157
▁immedi	-3158
▁India	-3159
▁tail	-3160
▁dou	-3161
erg	-3162
▁grad	-3163
▁security	-3164
▁thank	-3165
yl	-3166
▁ju	-3167
▁aware	-3168
▁civil	-3169
▁rare	-3170
▁emot	-3171
haps	-3172
▁CO	-3173
▁compon	-3174
▁concent	-3175
▁Educ	-3176
▁weak	-3177
▁Child	-3178
▁Calif	-3179
▁moral	-3180
▁ox	-3181
▁spend	-3182
▁offer	-3183
19	-3184
▁June	-3185
oly	-3186
ipp	-3187
▁ir	-3188
▁assist	-3189
▁theory	-3190
▁nation	-3191
▁hous	-3192
▁estim	-3193
▁German	-3194
▁webs	-3195
Wow	-3196
▁sust	-3197
abetes	-3198
▁thus	-3199
▁daily	-3200
▁seems	-3201
▁butterfly	-3202
▁trou	-3203
▁father	-3204
ties	-3205
▁Department	-3206
▁ec	-3207
▁established	-3208
AR	-3209
▁fra	-3210
▁network	-3211
▁forgot	-3212
▁,	-3213
▁wished	-3214
▁therefore	-3215
▁frog	-3216
12	-3217
head	-3218
asons	-3219
▁select	-3220
anch	-3221
▁deb	-3222
▁Tod	-3223
cause	-3224
▁performance	-3225
▁families	-3226
▁Ant	-3227
▁fruit	-3228
▁sugar	-3229
▁slowly	-3230
▁agree	-3231
▁shap	-3232
▁likes	-3233
▁leaders	-3234
▁European	-3235
▁fit	-3236
▁base	-3237
asure	-3238
▁solar	-3239
▁Ret	-3240
▁belong	-3241
▁March	-3242
▁Oct	-3243
▁French	-3244
▁military	-3245
▁instit	-3246
ying	-3247
▁train	-3248
erson	-3249
▁mental	-3250
▁happily	-3251
▁hyd	-3252
▁ful	-3253
▁jud	-3254
▁hopped	-3255
cell	-3256
▁smell	-3257
▁primary	-3258
▁waste	-3259
ushed	-3260
▁manufact	-3261
▁International	-3262
mit	-3263
▁Since	-3264
▁Institute	-3265
▁middle	-3266
▁swing	-3267
▁teeth	-3268
▁compared	-3269
▁disapp	-3270
ino	-3271
▁essential	-3272
using	-3273
▁round	-3274
▁cam	-3275
▁document	-3276
▁exercise	-3277
ornia	-3278
▁tur	-3279
0,	-3280
ym	-3281
▁aud	-3282
▁thous	-3283
ancial	-3284
▁achieve	-3285
▁Dav	-3286
▁Mus	-3287
▁delicious	-3288
▁fail	-3289
▁although	-3290
▁x	-3291
▁determine	-3292
▁Apr	-3293
ille	-3294
▁vit	-3295
undred	-3296
▁supply	-3297
▁wear	-3298
▁companies	-3299
▁humans	-3300
ims	-3301
▁Christian	-3302
eddy	-3303
ello	-3304
▁Reg	-3305
▁milk	-3306
▁larger	-3307
resh	-3308
▁Mon	-3309
ospital	-3310
ension	-3311
▁correct	-3312
pite	-3313
▁Spe	-3314
thern	-3315
▁Benny	-3316
ext	-3317
▁Billy	-3318
▁traditional	-3319
▁dead	-3320
▁beginning	-3321
▁wrote	-3322
▁recommend	-3323
aly	-3324
▁communities	-3325
▁California	-3326
▁allows	-3327
uman	-3328
ests	-3329
▁hill	-3330
▁ple	-3331
▁(200	-3332
▁Don	-3333
▁received	-3334
▁appropri	-3335
coh	-3336
ography	-3337
ubb	-3338
hern	-3339
▁labor	-3340
▁negative	-3341
▁diseases	-3342
▁lake	-3343
▁smart	-3344
▁speed	-3345
mission	-3346
▁paint	-3347
▁leading	-3348
▁i	-3349
IN	-3350
▁multiple	-3351
▁additional	-3352
▁directly	-3353
inese	-3354
▁goal	-3355
▁rout	-3356
cohol	-3357
▁Read	-3358
▁Jesus	-3359
▁Indian	-3360
IS	-3361
cript	-3362
▁eventually	-3363
▁Red	-3364
▁ble	-3365
▁yourself	-3366
▁mill	-3367
▁video	-3368
▁whose	-3369
▁bul	-3370
iency	-3371
▁tiss	-3372
ucky	-3373
arian	-3374
▁habit	-3375
▁decision	-3376
pa	-3377
▁mole	-3378
inking	-3379
▁machine	-3380
pes	-3381
▁active	-3382
▁choose	-3383
iving	-3384
www	-3385
▁Ir	-3386
▁discovered	-3387
▁History	-3388
▁See	-3389
▁Cor	-3390
▁gold	-3391
▁Are	-3392
▁reflect	-3393
uries	-3394
▁cream	-3395
yond	-3396
▁decre	-3397
▁rob	-3398
▁official	-3399
▁closed	-3400
▁African	-3401
▁sus	-3402
▁July	-3403
▁strange	-3404
▁Sept	-3405
aughter	-3406
▁nucle	-3407
▁powerful	-3408
right	-3409
▁demonstr	-3410
mar	-3411
▁teaching	-3412
▁40	-3413
▁eval	-3414
AN	-3415
▁anyone	-3416
▁Grand	-3417
▁highly	-3418
▁infection	-3419
▁altern	-3420
▁aspect	-3421
ilos	-3422
▁pupp	-3423
▁summer	-3424
▁Because	-3425
▁challeng	-3426
▁Daisy	-3427
hest	-3428
▁Lear	-3429
▁elements	-3430
see	-3431
iers	-3432
irrel	-3433
▁host	-3434
▁joy	-3435
▁capital	-3436
▁protein	-3437
▁smaller	-3438
▁son	-3439
▁central	-3440
orrow	-3441
year	-3442
▁Jen	-3443
▁West	-3444
▁pull	-3445
▁severe	-3446
iff	-3447
▁pink	-3448
▁join	-3449
▁August	-3450
▁stayed	-3451
▁beach	-3452
▁remain	-3453
▁Pat	-3454
term	-3455
▁http	-3456
orthern	-3457
▁speak	-3458
▁mis	-3459
▁broad	-3460
unt	-3461
amb	-3462
▁symbol	-3463
board	-3464
sect	-3465
▁Today	-3466
▁Add	-3467
▁ocean	-3468
▁workers	-3469
reek	-3470
iot	-3471
▁critical	-3472
▁People	-3473
ounds	-3474
▁Chinese	-3475
▁April	-3476
▁secret	-3477
▁exact	-3478
▁weeks	-3479
ica	-3480
▁interp	-3481
▁explained	-3482
▁clin	-3483
▁Sw	-3484
▁Bra	-3485
▁expos	-3486
ously	-3487
aled	-3488
▁stars	-3489
▁prior	-3490
▁values	-3491
▁decl	-3492
▁inn	-3493
▁surround	-3494
▁proced	-3495
irty	-3496
▁Som	-3497
▁progress	-3498
ipped	-3499
IC	-3500
▁ign	-3501
▁born	-3502
▁limited	-3503
▁runs	-3504
▁section	-3505
▁Sch	-3506
▁lines	-3507
▁transport	-3508
uk	-3509
▁private	-3510
▁forward	-3511
▁calc	-3512
▁shape	-3513
▁brown	-3514
▁protection	-3515
▁Africa	-3516
▁hundred	-3517
▁contains	-3518
▁mist	-3519
▁north	-3520
▁custom	-3521
▁Each	-3522
rs	-3523
iques	-3524
▁purpose	-3525
▁eth	-3526
▁Also	-3527
▁Molly	-3528
▁drag	-3529
gle	-3530
▁acid	-3531
▁Govern	-3532
▁moving	-3533
▁pig	-3534
▁clothes	-3535
▁block	-3536
-3	-3537
idents	-3538
▁bigger	-3539
▁dinner	-3540
rest	-3541
gn	-3542
water	-3543
▁rules	-3544
▁cred	-3545
▁Press	-3546
▁demand	-3547
▁season	-3548
lection	-3549
▁Of	-3550
ipment	-3551
▁described	-3552
▁allowed	-3553
▁situation	-3554
load	-3555
icks	-3556
▁objects	-3557
▁application	-3558
pir	-3559
▁spirit	-3560
▁1,	-3561
▁trade	-3562
▁nearly	-3563
▁Gr	-3564
▁stage	-3565
omet	-3566
▁older	-3567
▁owner	-3568
▁adults	-3569
▁analy	-3570
itect	-3571
”.	-3572
cription	-3573
▁comfort	-3574
▁squirrel	-3575
vant	-3576
▁rich	-3577
▁vacc	-3578
▁conne	-3579
rael	-3580
aks	-3581
▁President	-3582
raft	-3583
▁ten	-3584
isms	-3585
izes	-3586
▁flying	-3587
▁religious	-3588
▁veh	-3589
▁obt	-3590
▁capac	-3591
St	-3592
▁mention	-3593
▁intro	-3594
time	-3595
iber	-3596
acked	-3597
▁software	-3598
can	-3599
▁passed	-3600
istry	-3601
▁autom	-3602
▁pow	-3603
▁shall	-3604
▁castle	-3605
ager	-3606
▁administ	-3607
▁tele	-3608
▁remains	-3609
wise	-3610
▁Jour	-3611
▁lion	-3612
▁send	-3613
ky	-3614
back	-3615
▁adop	-3616
orders	-3617
▁letter	-3618
▁Mc	-3619
OR	-3620
▁Sim	-3621
▁destro	-3622
▁load	-3623
▁sett	-3624
▁Prog	-3625
▁detect	-3626
rugg	-3627
▁property	-3628
▁vict	-3629
inct	-3630
wl	-3631
▁24	-3632
▁strateg	-3633
▁establish	-3634
▁largest	-3635
▁length	-3636
ovember	-3637
olar	-3638
▁wel	-3639
▁Canada	-3640
▁died	-3641
▁England	-3642
▁features	-3643
:1	-3644
▁giving	-3645
▁quant	-3646
▁rates	-3647
ologies	-3648
rogen	-3649
▁influence	-3650
▁placed	-3651
▁located	-3652
▁distance	-3653
▁scale	-3654
▁spent	-3655
▁carried	-3656
ball	-3657
estic	-3658
odies	-3659
▁tiny	-3660
▁except	-3661
▁memory	-3662
▁importance	-3663
ON	-3664
hens	-3665
oming	-3666
▁accur	-3667
ondon	-3668
▁tests	-3669
▁Amy	-3670
Hello	-3671
▁solution	-3672
osy	-3673
▁laws	-3674
cember	-3675
uit	-3676
▁center	-3677
anish	-3678
inated	-3679
▁save	-3680
▁hungry	-3681
▁Dis	-3682
izations	-3683
orge	-3684
▁har	-3685
▁onto	-3686
▁dance	-3687
lex	-3688
▁wish	-3689
▁responsible	-3690
▁miles	-3691
▁scary	-3692
▁hit	-3693
▁Cong	-3694
▁fuel	-3695
▁federal	-3696
ari	-3697
▁Maybe	-3698
▁financial	-3699
▁winter	-3700
known	-3701
▁drink	-3702
▁efforts	-3703
▁Serv	-3704
atch	-3705
ening	-3706
▁accom	-3707
▁cup	-3708
lin	-3709
ellig	-3710
flict	-3711
▁note	-3712
▁sounds	-3713
▁south	-3714
▁figure	-3715
eal	-3716
▁agricult	-3717
▁basis	-3718
▁becomes	-3719
▁beg	-3720
▁ride	-3721
▁creating	-3722
osition	-3723
▁City	-3724
▁transl	-3725
▁January	-3726
▁Tra	-3727
ibr	-3728
now	-3729
▁quiet	-3730
▁William	-3731
▁communic	-3732
▁fing	-3733
▁images	-3734
issions	-3735
▁arms	-3736
▁drive	-3737
▁Inc	-3738
▁Associ	-3739
▁frame	-3740
▁requires	-3741
▁Arch	-3742
ees	-3743
▁4.	-3744
entially	-3745
▁costs	-3746
▁screen	-3747
alled	-3748
▁Inst	-3749
IV	-3750
▁Trans	-3751
iven	-3752
▁Israel	-3753
▁shar	-3754
▁October	-3755
▁device	-3756
▁devices	-3757
ashington	-3758
▁remo	-3759
▁predict	-3760
▁ep	-3761
▁communication	-3762
▁respond	-3763
atur	-3764
▁office	-3765
ok	-3766
▁*	-3767
▁deal	-3768
▁trust	-3769
▁neck	-3770
▁citiz	-3771
▁der	-3772
roduction	-3773
▁191	-3774
▁planet	-3775
ience	-3776
▁prec	-3777
▁Develop	-3778
▁storm	-3779
olic	-3780
▁weather	-3781
vest	-3782
▁Feb	-3783
▁Education	-3784
▁Day	-3785
▁Over	-3786
▁0.	-3787
▁coast	-3788
ander	-3789
▁Americans	-3790
▁fresh	-3791
▁strugg	-3792
▁sustain	-3793
igr	-3794
itis	-3795
▁file	-3796
▁beyond	-3797
▁esc	-3798
EN	-3799
▁September	-3800
▁receive	-3801
▁testing	-3802
▁strength	-3803
edia	-3804
▁sites	-3805
▁steps	-3806
encies	-3807
▁High	-3808
▁River	-3809
▁lic	-3810
▁changed	-3811
In	-3812
ech	-3813
▁expected	-3814
ctors	-3815
▁constit	-3816
men	-3817
▁legal	-3818
▁bacteria	-3819
▁cookies	-3820
▁colon	-3821
▁repe	-3822
▁puppy	-3823
▁typically	-3824
▁Use	-3825
▁Ke	-3826
▁rapid	-3827
▁tom	-3828
▁applications	-3829
▁November	-3830
iar	-3831
▁anx	-3832
vered	-3833
▁context	-3834
▁medicine	-3835
▁completely	-3836
life	-3837
▁ult	-3838
▁Another	-3839
▁construction	-3840
▁shel	-3841
iable	-3842
equ	-3843
enge	-3844
▁rat	-3845
▁offe	-3846
▁effort	-3847
▁defe	-3848
▁band	-3849
▁equipment	-3850
▁appropriate	-3851
▁21	-3852
▁earlier	-3853
▁Washington	-3854
▁warn	-3855
inate	-3856
▁Journal	-3857
▁turns	-3858
▁everywhere	-3859
▁board	-3860
▁pretend	-3861
▁collection	-3862
▁techniques	-3863
▁Mod	-3864
▁final	-3865
▁193	-3866
▁cro	-3867
But	-3868
▁tit	-3869
▁projects	-3870
▁Great	-3871
▁instr	-3872
▁famous	-3873
▁adj	-3874
▁commer	-3875
▁examples	-3876
▁recently	-3877
▁rise	-3878
▁forget	-3879
▁spark	-3880
▁Ty	-3881
▁December	-3882
illing	-3883
▁anti	-3884
▁bone	-3885
▁hide	-3886
▁woods	-3887
▁Bi	-3888
▁controll	-3889
▁Techn	-3890
sec	-3891
▁diabetes	-3892
▁mid	-3893
eding	-3894
▁inform	-3895
▁bath	-3896
▁blank	-3897
rees	-3898
co	-3899
▁Soon	-3900
▁sick	-3901
ham	-3902
▁balance	-3903
▁Bar	-3904
▁ship	-3905
PA	-3906
rieved	-3907
▁pulled	-3908
▁forces	-3909
▁continu	-3910
olf	-3911
▁Val	-3912
▁ren	-3913
▁map	-3914
▁Cur	-3915
ords	-3916
▁und	-3917
▁Jill	-3918
▁eight	-3919
▁therapy	-3920
▁accident	-3921
▁practices	-3922
▁gets	-3923
▁website	-3924
▁London	-3925
cles	-3926
▁glass	-3927
cious	-3928
▁push	-3929
▁processes	-3930
80	-3931
ears	-3932
▁daughter	-3933
▁determined	-3934
▁Ste	-3935
▁Mark	-3936
▁Park	-3937
▁isn	-3938
ancing	-3939
▁reasons	-3940
▁adapt	-3941
▁appeared	-3942
▁Water	-3943
▁County	-3944
▁grandma	-3945
apter	-3946
▁former	-3947
▁wouldn	-3948
IT	-3949
▁choice	-3950
▁ing	-3951
actions	-3952
ocr	-3953
▁Paul	-3954
▁asks	-3955
▁Society	-3956
▁web	-3957
gypt	-3958
uffy	-3959
▁bottom	-3960
alk	-3961
▁San	-3962
▁meant	-3963
▁digital	-3964
▁date	-3965
▁climbed	-3966
▁economy	-3967
▁providing	-3968
▁IS	-3969
▁DNA	-3970
▁Social	-3971
▁advant	-3972
ube	-3973
▁display	-3974
40	-3975
omy	-3976
imal	-3977
▁kid	-3978
ether	-3979
▁cultural	-3980
▁:	-3981
▁names	-3982
uate	-3983
▁location	-3984
▁benefit	-3985
▁court	-3986
kin	-3987
-0	-3988
ford	-3989
▁Under	-3990
era	-3991
▁listened	-3992
▁adm	-3993
▁consequ	-3994
▁alcohol	-3995
isl	-3996
▁Black	-3997
▁chance	-3998
oses	-3999
▁promised	-4000
▁sister	-4001
▁nearby	-4002
▁covered	-4003
▁Coun	-4004
);	-4005
▁Roman	-4006
mosp	-4007
▁den	-4008
▁General	-4009
▁journey	-4010
za	-4011
book	-4012
▁Island	-4013
tery	-4014
nic	-4015
rot	-4016
ocked	-4017
▁models	-4018
▁snack	-4019
▁thinks	-4020
60	-4021
▁enter	-4022
▁journal	-4023
▁user	-4024
▁billion	-4025
▁truth	-4026
▁conflict	-4027
-19	-4028
▁rocks	-4029
▁numer	-4030
▁sch	-4031
▁dogs	-4032
eration	-4033
▁Commun	-4034
▁church	-4035
▁duck	-4036
▁code	-4037
▁affected	-4038
▁James	-4039
▁Law	-4040
▁molec	-4041
▁opportunity	-4042
▁freed	-4043
▁approx	-4044
▁attract	-4045
▁daddy	-4046
▁member	-4047
▁Australia	-4048
rig	-4049
▁pregn	-4050
▁users	-4051
▁degree	-4052
oration	-4053
▁Prof	-4054
▁maintain	-4055
▁genetic	-4056
▁Che	-4057
▁System	-4058
iest	-4059
▁bot	-4060
▁rule	-4061
ogen	-4062
▁worth	-4063
▁seemed	-4064
▁organization	-4065
▁George	-4066
▁East	-4067
▁insect	-4068
▁currently	-4069
▁broke	-4070
▁eggs	-4071
AS	-4072
▁Sur	-4073
▁separate	-4074
May	-4075
▁worried	-4076
enty	-4077
ressive	-4078
ero	-4079
nds	-4080
que	-4081
▁helpful	-4082
▁amazed	-4083
",	-4084
▁behavi	-4085
▁stream	-4086
▁waited	-4087
▁Egypt	-4088
amic	-4089
▁via	-4090
▁Church	-4091
▁spring	-4092
▁fine	-4093
active	-4094
urance	-4095
wers	-4096
duces	-4097
▁unc	-4098
▁max	-4099
▁exec	-4100
itable	-4101
▁hyp	-4102
▁Program	-4103
▁poly	-4104
pan	-4105
▁fox	-4106
▁constant	-4107
▁measures	-4108
▁Germany	-4109
▁House	-4110
▁smiles	-4111
▁Aut	-4112
EC	-4113
ED	-4114
▁independent	-4115
house	-4116
▁nest	-4117
▁toward	-4118
rab	-4119
▁standards	-4120
oyal	-4121
▁film	-4122
▁vegetables	-4123
apped	-4124
▁occurs	-4125
▁applied	-4126
▁Rel	-4127
▁street	-4128
▁Retrieved	-4129
ruary	-4130
uzz	-4131
▁hospital	-4132
▁link	-4133
▁libr	-4134
▁purch	-4135
unk	-4136
ula	-4137
▁throw	-4138
▁sequ	-4139
▁David	-4140
▁stone	-4141
▁farmer	-4142
▁overall	-4143
▁virus	-4144
vert	-4145
▁guid	-4146
gal	-4147
▁formed	-4148
▁destroy	-4149
▁metal	-4150
▁returned	-4151
ucks	-4152
cast	-4153
ket	-4154
▁drugs	-4155
▁hun	-4156
▁patterns	-4157
▁signs	-4158
▁categ	-4159
▁occup	-4160
▁NA	-4161
exic	-4162
▁explain	-4163
▁taught	-4164
ateful	-4165
▁shell	-4166
▁neighbor	-4167
ensity	-4168
▁majority	-4169
ald	-4170
▁branch	-4171
▁perhaps	-4172
▁breast	-4173
pire	-4174
▁feels	-4175
▁historical	-4176
▁seek	-4177
▁horse	-4178
▁exposure	-4179
▁bowl	-4180
▁classroom	-4181
▁differences	-4182
ament	-4183
▁commonly	-4184
gency	-4185
alt	-4186
▁task	-4187
▁stret	-4188
▁Thus	-4189
rical	-4190
▁gent	-4191
▁talking	-4192
▁suddenly	-4193
▁assign	-4194
▁philos	-4195
▁Ma	-4196
rition	-4197
▁actions	-4198
▁60	-4199
▁caught	-4200
▁spo	-4201
15	-4202
off	-4203
▁believed	-4204
▁staff	-4205
▁finding	-4206
▁mission	-4207
Oh	-4208
▁phone	-4209
▁illness	-4210
ibly	-4211
25	-4212
▁cloth	-4213
▁Inter	-4214
▁status	-4215
▁architect	-4216
▁thick	-4217
▁Green	-4218
▁Ob	-4219
▁professional	-4220
▁195	-4221
▁immediately	-4222
▁fields	-4223
phas	-4224
▁acqu	-4225
▁shapes	-4226
ux	-4227
▁tox	-4228
▁virt	-4229
▁Union	-4230
▁root	-4231
▁starting	-4232
wide	-4233
▁colorful	-4234
▁command	-4235
hemat	-4236
▁identified	-4237
▁buck	-4238
▁silly	-4239
▁visual	-4240
▁cities	-4241
▁holding	-4242
▁bike	-4243
ped	-4244
▁motor	-4245
▁magical	-4246
▁integr	-4247
▁increases	-4248
ingu	-4249
▁pal	-4250
▁tor	-4251
craft	-4252
▁reduced	-4253
▁bite	-4254
ek	-4255
▁sort	-4256
▁Colle	-4257
▁Rem	-4258
▁academ	-4259
▁Public	-4260
elly	-4261
▁wealth	-4262
omas	-4263
▁remind	-4264
apers	-4265
▁(201	-4266
▁Food	-4267
▁compl	-4268
▁village	-4269
works	-4270
▁meat	-4271
▁fully	-4272
▁Cour	-4273
▁Later	-4274
▁relatively	-4275
▁Ass	-4276
▁appears	-4277
▁Av	-4278
▁saying	-4279
gery	-4280
spe	-4281
▁rot	-4282
AL	-4283
▁flag	-4284
▁version	-4285
ection	-4286
▁grateful	-4287
▁Mexic	-4288
▁Ann	-4289
▁stuck	-4290
ses	-4291
▁Phil	-4292
▁atmosp	-4293
▁February	-4294
aign	-4295
▁expand	-4296
”,	-4297
▁enh	-4298
▁bread	-4299
▁element	-4300
▁promot	-4301
▁offered	-4302
▁wings	-4303
▁UN	-4304
iety	-4305
▁tower	-4306
▁opin	-4307
▁mob	-4308
▁myster	-4309
▁intellig	-4310
stood	-4311
▁properties	-4312
anks	-4313
▁dropped	-4314
force	-4315
▁seven	-4316
▁gain	-4317
▁TH	-4318
▁price	-4319
▁message	-4320
▁situ	-4321
▁trib	-4322
▁fert	-4323
▁Environment	-4324
▁efficient	-4325
▁convers	-4326
▁aim	-4327
▁limit	-4328
▁unit	-4329
▁direction	-4330
▁Ang	-4331
▁Children	-4332
▁novel	-4333
▁compar	-4334
omb	-4335
AC	-4336
oma	-4337
▁sitting	-4338
▁creative	-4339
rief	-4340
▁wave	-4341
▁Peter	-4342
▁Mic	-4343
▁suppl	-4344
ender	-4345
▁vision	-4346
yd	-4347
▁Mat	-4348
tered	-4349
▁details	-4350
olid	-4351
idden	-4352
▁Human	-4353
▁transfer	-4354
eper	-4355
▁observ	-4356
▁buildings	-4357
▁nose	-4358
▁plastic	-4359
▁presence	-4360
▁dat	-4361
ailed	-4362
▁exploring	-4363
▁factor	-4364
lim	-4365
▁match	-4366
urg	-4367
▁Vol	-4368
▁Mich	-4369
▁Jewish	-4370
▁setting	-4371
▁radio	-4372
▁style	-4373
▁homes	-4374
▁plans	-4375
▁Sometimes	-4376
▁bound	-4377
▁mut	-4378
▁relie	-4379
▁highest	-4380
▁citizens	-4381
▁existing	-4382
▁shoes	-4383
▁belief	-4384
rupt	-4385
▁iron	-4386
▁Please	-4387
16	-4388
▁Council	-4389
related	-4390
roph	-4391
▁eleph	-4392
-4	-4393
▁copy	-4394
rehens	-4395
▁capacity	-4396
▁moon	-4397
▁serve	-4398
▁foreign	-4399
▁joint	-4400
fra	-4401
▁candy	-4402
▁tun	-4403
▁plane	-4404
ishes	-4405
▁equal	-4406
▁infect	-4407
▁Japanese	-4408
▁nutri	-4409
▁offers	-4410
▁police	-4411
▁nerv	-4412
▁teddy	-4413
▁survey	-4414
▁initi	-4415
▁female	-4416
▁Internet	-4417
icip	-4418
▁lit	-4419
▁functions	-4420
body	-4421
▁express	-4422
▁challenge	-4423
▁educational	-4424
▁easier	-4425
▁gentle	-4426
▁defined	-4427
▁Congress	-4428
semb	-4429
▁tissue	-4430
▁Students	-4431
met	-4432
anging	-4433
▁plate	-4434
▁contract	-4435
▁notice	-4436
▁instance	-4437
▁tooth	-4438
▁monit	-4439
isation	-4440
▁chair	-4441
▁findings	-4442
▁opportunities	-4443
▁evolution	-4444
▁dirty	-4445
▁happens	-4446
▁cru	-4447
▁pray	-4448
▁Its	-4449
▁Western	-4450
▁incor	-4451
▁pushed	-4452
▁Association	-4453
▁Di	-4454
▁Bel	-4455
▁mountain	-4456
▁kinds	-4457
▁monster	-4458
resp	-4459
hab	-4460
ss	-4461
pective	-4462
▁Pal	-4463
che	-4464
▁gun	-4465
▁wise	-4466
ato	-4467
asion	-4468
▁fixed	-4469
▁polic	-4470
▁trouble	-4471
▁thousands	-4472
bl	-4473
▁challenges	-4474
▁muscle	-4475
▁mine	-4476
▁yard	-4477
70	-4478
ygen	-4479
▁immune	-4480
▁suggests	-4481
▁pock	-4482
▁Hen	-4483
▁qual	-4484
▁dragon	-4485
▁mal	-4486
▁sharp	-4487
▁welcome	-4488
ession	-4489
▁observed	-4490
▁resistance	-4491
▁Two	-4492
13	-4493
hors	-4494
Why	-4495
▁nap	-4496
▁construct	-4497
▁conv	-4498
▁disp	-4499
▁items	-4500
uild	-4501
▁meeting	-4502
▁cere	-4503
▁counter	-4504
▁Pet	-4505
▁expensive	-4506
▁nuclear	-4507
▁Mor	-4508
oogle	-4509
med	-4510
▁Plan	-4511
▁square	-4512
▁spin	-4513
▁Budd	-4514
▁guide	-4515
igg	-4516
ternal	-4517
▁Medic	-4518
ographic	-4519
nes	-4520
▁becoming	-4521
▁Fur	-4522
▁options	-4523
▁Hel	-4524
▁goals	-4525
▁antib	-4526
▁bee	-4527
isher	-4528
▁orange	-4529
▁effic	-4530
▁bodies	-4531
▁discover	-4532
▁Vir	-4533
▁exciting	-4534
▁kiss	-4535
▁treated	-4536
ste	-4537
▁Mama	-4538
▁innov	-4539
22	-4540
▁introduced	-4541
abilities	-4542
▁lose	-4543
▁assum	-4544
▁wag	-4545
orage	-4546
▁stepped	-4547
▁pp	-4548
▁restrict	-4549
ares	-4550
▁regions	-4551
▁structures	-4552
ologist	-4553
▁release	-4554
▁Dan	-4555
▁actual	-4556
▁exhib	-4557
mes	-4558
▁tea	-4559
▁extremely	-4560
▁Jer	-4561
▁understood	-4562
▁gar	-4563
▁France	-4564
▁remove	-4565
ategy	-4566
▁disorder	-4567
▁technologies	-4568
▁income	-4569
▁mir	-4570
▁phen	-4571
▁absor	-4572
▁reports	-4573
▁distribution	-4574
▁apply	-4575
▁president	-4576
▁showing	-4577
▁rough	-4578
▁flex	-4579
▁native	-4580
uable	-4581
yard	-4582
Maybe	-4583
▁connected	-4584
▁vitamin	-4585
hetic	-4586
▁commercial	-4587
enth	-4588
▁trip	-4589
▁Daddy	-4590
▁fighting	-4591
road	-4592
lowing	-4593
▁sexual	-4594
▁emissions	-4595
▁Government	-4596
▁god	-4597
▁components	-4598
▁Like	-4599
▁stim	-4600
ios	-4601
▁5.	-4602
▁UK	-4603
▁Sub	-4604
▁hoped	-4605
▁…	-4606
▁consumption	-4607
▁sharing	-4608
OS	-4609
▁gift	-4610
▁legisl	-4611
▁district	-4612
ien	-4613
▁planning	-4614
iance	-4615
▁pointed	-4616
▁Bo	-4617
▁topic	-4618
▁crying	-4619
▁freedom	-4620
▁released	-4621
▁collabor	-4622
orial	-4623
▁juice	-4624
▁mer	-4625
▁magic	-4626
▁depression	-4627
antic	-4628
▁notes	-4629
igure	-4630
▁dyn	-4631
▁organizations	-4632
ortunately	-4633
▁suggested	-4634
▁busy	-4635
▁tells	-4636
▁tradition	-4637
▁cart	-4638
▁liqu	-4639
▁fruits	-4640
▁approximately	-4641
atin	-4642
▁grew	-4643
▁basket	-4644
DA	-4645
II	-4646
zing	-4647
▁honey	-4648
oices	-4649
▁smooth	-4650
lor	-4651
aint	-4652
aser	-4653
ittee	-4654
▁generation	-4655
OK	-4656
▁lunch	-4657
EM	-4658
arsh	-4659
▁rul	-4660
▁Tur	-4661
▁chick	-4662
▁emphas	-4663
▁electricity	-4664
▁singing	-4665
▁shop	-4666
▁apple	-4667
▁household	-4668
change	-4669
asks	-4670
▁spect	-4671
▁princess	-4672
▁feature	-4673
▁strategies	-4674
▁experiences	-4675
▁seeds	-4676
▁reference	-4677
▁Emma	-4678
▁urban	-4679
▁Development	-4680
▁decisions	-4681
▁balloon	-4682
▁finish	-4683
▁walls	-4684
▁dim	-4685
elled	-4686
▁slight	-4687
▁letters	-4688
bre	-4689
opping	-4690
▁populations	-4691
▁leaf	-4692
igen	-4693
▁standing	-4694
14	-4695
▁driver	-4696
▁clinical	-4697
▁pun	-4698
▁decades	-4699
▁grown	-4700
rome	-4701
▁track	-4702
osing	-4703
vision	-4704
▁taste	-4705
▁gene	-4706
▁grant	-4707
▁station	-4708
▁estimated	-4709
▁soci	-4710
▁graph	-4711
▁motion	-4712
▁served	-4713
▁math	-4714
mitted	-4715
irect	-4716
▁flood	-4717
▁College	-4718
▁2010	-4719
▁arr	-4720
▁tim	-4721
▁util	-4722
bow	-4723
90	-4724
ida	-4725
▁threw	-4726
▁Lord	-4727
ounced	-4728
▁colour	-4729
▁Both	-4730
hered	-4731
▁190	-4732
▁giant	-4733
▁excess	-4734
rm	-4735
▁dolls	-4736
cking	-4737
adow	-4738
▁Spanish	-4739
porary	-4740
iment	-4741
▁string	-4742
▁layer	-4743
iring	-4744
▁fold	-4745
▁2012	-4746
▁upset	-4747
▁disorders	-4748
▁presented	-4749
▁pump	-4750
▁vary	-4751
▁Sun	-4752
▁pool	-4753
▁Organ	-4754
▁ring	-4755
▁forever	-4756
▁causing	-4757
ado	-4758
▁faith	-4759
▁literature	-4760
▁records	-4761
ship	-4762
ev	-4763
▁drove	-4764
Okay	-4765
▁La	-4766
▁Inside	-4767
▁advice	-4768
▁clearly	-4769
▁exactly	-4770
▁industrial	-4771
ulf	-4772
▁twins	-4773
▁(3	-4774
▁elim	-4775
▁illustr	-4776
18	-4777
▁treasure	-4778
gl	-4779
▁blanket	-4780
isk	-4781
▁Mal	-4782
▁concentr	-4783
▁Je	-4784
▁ST	-4785
fully	-4786
▁22	-4787
▁Jimmy	-4788
▁Rober	-4789
part	-4790
▁Miss	-4791
▁fort	-4792
▁mail	-4793
elines	-4794
ointed	-4795
▁Therefore	-4796
▁combination	-4797
plications	-4798
▁Off	-4799
▁male	-4800
▁Museum	-4801
▁experiment	-4802
▁tour	-4803
▁aspects	-4804
▁swimming	-4805
urb	-4806
ophy	-4807
▁Further	-4808
▁contrast	-4809
nel	-4810
care	-4811
▁reality	-4812
▁alternative	-4813
▁waves	-4814
▁replace	-4815
la	-4816
gment	-4817
▁pages	-4818
▁Republic	-4819
▁numerous	-4820
ogether	-4821
▁creation	-4822
▁Using	-4823
Ch	-4824
▁ves	-4825
▁Alex	-4826
stitution	-4827
▁temperatures	-4828
▁Dem	-4829
▁promise	-4830
unction	-4831
icial	-4832
▁sail	-4833
▁button	-4834
iders	-4835
▁chronic	-4836
▁frequently	-4837
▁23	-4838
▁doub	-4839
▁tum	-4840
▁oxygen	-4841
▁noted	-4842
amental	-4843
▁recommended	-4844
▁flo	-4845
do	-4846
▁discussion	-4847
▁requirements	-4848
▁territ	-4849
▁fence	-4850
▁campaign	-4851
▁killed	-4852
▁Ev	-4853
▁encourage	-4854
▁battle	-4855
▁corner	-4856
▁liber	-4857
▁widely	-4858
▁changing	-4859
▁jar	-4860
▁2011	-4861
▁seed	-4862
▁Found	-4863
▁watching	-4864
▁operations	-4865
▁hom	-4866
▁fairy	-4867
▁vot	-4868
▁risks	-4869
place	-4870
▁resource	-4871
▁unf	-4872
▁connection	-4873
▁significantly	-4874
▁landsc	-4875
▁legs	-4876
▁remained	-4877
cked	-4878
▁Thomas	-4879
▁earn	-4880
▁lone	-4881
▁physic	-4882
▁partners	-4883
▁performed	-4884
▁touc	-4885
▁bottle	-4886
▁houses	-4887
▁leaving	-4888
▁Air	-4889
▁End	-4890
▁Cath	-4891
▁conducted	-4892
▁...	-4893
▁Before	-4894
cont	-4895
▁mov	-4896
▁mentioned	-4897
78	-4898
▁quar	-4899
▁college	-4900
▁Web	-4901
▁Mount	-4902
ructure	-4903
▁salt	-4904
▁youth	-4905
▁essay	-4906
▁owners	-4907
▁properly	-4908
▁removed	-4909
▁managed	-4910
▁Post	-4911
pat	-4912
▁Brown	-4913
▁Greek	-4914
▁output	-4915
RE	-4916
▁prepared	-4917
▁Well	-4918
▁186	-4919
roup	-4920
21	-4921
▁policies	-4922
cip	-4923
char	-4924
▁empt	-4925
▁Arab	-4926
▁About	-4927
lder	-4928
▁Phys	-4929
▁manage	-4930
▁statement	-4931
oty	-4932
▁Mum	-4933
▁cycle	-4934
rete	-4935
riage	-4936
▁core	-4937
ologists	-4938
tical	-4939
23	-4940
▁annual	-4941
▁Isl	-4942
atform	-4943
▁agg	-4944
▁Fore	-4945
▁technique	-4946
lands	-4947
▁bought	-4948
▁settle	-4949
▁fill	-4950
▁whom	-4951
▁sample	-4952
▁afra	-4953
ria	-4954
▁authors	-4955
▁wife	-4956
iverse	-4957
▁afraid	-4958
ago	-4959
mic	-4960
▁Up	-4961
grad	-4962
▁Mart	-4963
▁bank	-4964
reci	-4965
▁Scient	-4966
▁drawing	-4967
▁Where	-4968
▁Met	-4969
▁diam	-4970
▁isol	-4971
▁girls	-4972
▁Rev	-4973
▁cray	-4974
▁raised	-4975
▁Instead	-4976
▁nor	-4977
▁valuable	-4978
▁edge	-4979
atically	-4980
▁purple	-4981
ulum	-4982
▁Ell	-4983
▁Ser	-4984
▁owl	-4985
olved	-4986
▁Kore	-4987
bal	-4988
▁Rich	-4989
▁excl	-4990
▁resulting	-4991
▁relax	-4992
▁degrees	-4993
ception	-4994
▁vessel	-4995
aching	-4996
▁participants	-4997
▁surgery	-4998
▁interpret	-4999
▁organic	-5000
▁Port	-5001
▁Test	-5002
▁cave	-5003
sp	-5004
▁storage	-5005
▁collected	-5006
Sure	-5007
▁Dist	-5008
▁speech	-5009
onic	-5010
ciences	-5011
rian	-5012
▁vul	-5013
▁ingred	-5014
▁interested	-5015
▁2,	-5016
▁knowing	-5017
▁Su	-5018
cend	-5019
▁lung	-5020
▁distinct	-5021
▁straight	-5022
▁hour	-5023
▁upper	-5024
▁organized	-5025
▁radiation	-5026
▁reb	-5027
ias	-5028
▁paid	-5029
rad	-5030
▁Pri	-5031
▁divers	-5032
▁principles	-5033
▁scen	-5034
iveness	-5035
▁expert	-5036
ilit	-5037
▁comprehens	-5038
▁80	-5039
Mommy	-5040
▁univers	-5041
▁NASA	-5042
▁hearing	-5043
▁drinking	-5044
ij	-5045
▁Lou	-5046
▁ded	-5047
▁kill	-5048
▁initial	-5049
▁decide	-5050
▁describe	-5051
▁northern	-5052
▁bridge	-5053
CC	-5054
▁maybe	-5055
▁upd	-5056
▁Thank	-5057
▁expression	-5058
▁circum	-5059
▁pocket	-5060
▁prefer	-5061
wing	-5062
▁operation	-5063
een	-5064
▁minor	-5065
▁Que	-5066
arrow	-5067
▁excell	-5068
▁anxiety	-5069
▁transform	-5070
▁Get	-5071
▁concl	-5072
▁Fe	-5073
▁elev	-5074
▁charge	-5075
▁Rec	-5076
▁nav	-5077
▁pil	-5078
▁Smith	-5079
▁cheered	-5080
▁infections	-5081
▁referred	-5082
ault	-5083
reamed	-5084
▁characteristics	-5085
▁experienced	-5086
▁proposed	-5087
▁violence	-5088
mark	-5089
▁inflamm	-5090
▁previously	-5091
▁unus	-5092
▁linked	-5093
▁Treat	-5094
▁regarding	-5095
▁west	-5096
▁backyard	-5097
ups	-5098
▁pin	-5099
▁clouds	-5100
▁mos	-5101
▁swam	-5102
ighter	-5103
▁yield	-5104
leg	-5105
respond	-5106
▁dram	-5107
▁lonely	-5108
▁solutions	-5109
nergy	-5110
▁strategy	-5111
▁Sal	-5112
eline	-5113
▁southern	-5114
▁religion	-5115
▁closely	-5116
▁coat	-5117
▁assessment	-5118
ito	-5119
▁Bas	-5120
▁Out	-5121
▁Life	-5122
▁White	-5123
ET	-5124
▁solid	-5125
▁internal	-5126
dd	-5127
▁east	-5128
▁swings	-5129
▁relationships	-5130
Hi	-5131
▁leads	-5132
▁mostly	-5133
ulating	-5134
▁traffic	-5135
▁Cle	-5136
field	-5137
ognitive	-5138
▁Fol	-5139
▁impl	-5140
odes	-5141
▁Second	-5142
Do	-5143
eties	-5144
▁injury	-5145
-5	-5146
▁pill	-5147
▁waters	-5148
ii	-5149
AM	-5150
▁cow	-5151
itz	-5152
▁leader	-5153
▁obvious	-5154
▁identity	-5155
▁clapped	-5156
▁26	-5157
▁breath	-5158
▁noises	-5159
▁Project	-5160
▁faces	-5161
ixt	-5162
▁sang	-5163
▁involve	-5164
▁189	-5165
▁classes	-5166
▁sell	-5167
▁driving	-5168
▁option	-5169
▁wearing	-5170
well	-5171
▁synt	-5172
▁adventures	-5173
▁units	-5174
▁academic	-5175
▁die	-5176
essor	-5177
▁emergency	-5178
▁robot	-5179
▁soup	-5180
▁alg	-5181
▁tag	-5182
phone	-5183
▁drop	-5184
▁coal	-5185
ya	-5186
anda	-5187
▁mad	-5188
▁chest	-5189
▁completed	-5190
▁conservation	-5191
▁articles	-5192
▁Mil	-5193
▁cheese	-5194
▁reducing	-5195
5%	-5196
▁protected	-5197
▁attrib	-5198
▁credit	-5199
▁scar	-5200
▁Russian	-5201
▁institutions	-5202
▁Henry	-5203
200	-5204
umn	-5205
▁Medical	-5206
ipe	-5207
▁farmers	-5208
berg	-5209
▁roof	-5210
cipl	-5211
osystem	-5212
▁decor	-5213
▁multi	-5214
▁sight	-5215
▁advantage	-5216
▁failure	-5217
born	-5218
▁rub	-5219
▁Little	-5220
▁background	-5221
▁News	-5222
▁relevant	-5223
▁Supp	-5224
▁puts	-5225
▁ru	-5226
▁Op	-5227
andy	-5228
▁2009	-5229
▁sin	-5230
▁HIV	-5231
erate	-5232
▁Grandma	-5233
▁deliver	-5234
▁experts	-5235
▁effectively	-5236
ching	-5237
▁bill	-5238
zed	-5239
anges	-5240
▁genes	-5241
▁cop	-5242
ferences	-5243
▁unknown	-5244
▁involves	-5245
▁depending	-5246
cope	-5247
▁chemicals	-5248
▁museum	-5249
eles	-5250
▁Sen	-5251
win	-5252
▁master	-5253
▁reaction	-5254
▁Atl	-5255
▁smoke	-5256
▁forced	-5257
▁follows	-5258
▁Ber	-5259
▁subs	-5260
▁mathemat	-5261
▁conclud	-5262
-8	-5263
▁Cam	-5264
▁rail	-5265
▁datab	-5266
▁invent	-5267
▁satis	-5268
▁28	-5269
▁Asia	-5270
▁boys	-5271
rum	-5272
arched	-5273
▁Mag	-5274
uration	-5275
▁amounts	-5276
▁waiting	-5277
▁mixed	-5278
▁spray	-5279
▁dust	-5280
ocolate	-5281
ossible	-5282
▁Court	-5283
▁Space	-5284
▁keeping	-5285
ella	-5286
▁Good	-5287
▁adjust	-5288
▁Bet	-5289
acing	-5290
17	-5291
▁uns	-5292
▁exposed	-5293
▁Through	-5294
▁supported	-5295
▁asking	-5296
▁incorpor	-5297
▁aid	-5298
▁advanced	-5299
PS	-5300
▁TV	-5301
▁gather	-5302
▁input	-5303
▁Any	-5304
▁platform	-5305
▁Class	-5306
▁knows	-5307
▁seat	-5308
▁promote	-5309
▁elephant	-5310
▁2013	-5311
▁feelings	-5312
bi	-5313
wood	-5314
▁processing	-5315
▁confirm	-5316
acific	-5317
▁volume	-5318
▁emotional	-5319
anches	-5320
poses	-5321
▁phenomen	-5322
utive	-5323
▁hidden	-5324
▁Central	-5325
▁recorded	-5326
▁manufacture	-5327
▁mel	-5328
▁wire	-5329
▁attend	-5330
▁stro	-5331
▁solve	-5332
▁coord	-5333
▁recognized	-5334
▁sufficient	-5335
ishing	-5336
________	-5337
▁puzz	-5338
▁6.	-5339
▁Fluffy	-5340
uls	-5341
▁gender	-5342
▁concepts	-5343
▁profession	-5344
ye	-5345
▁empty	-5346
▁improved	-5347
isis	-5348
▁bud	-5349
▁vulner	-5350
▁discovery	-5351
ola	-5352
icated	-5353
▁Britain	-5354
▁suc	-5355
▁bell	-5356
▁install	-5357
flow	-5358
▁consult	-5359
-6	-5360
▁2008	-5361
▁circle	-5362
▁measured	-5363
▁manner	-5364
▁request	-5365
▁Franc	-5366
▁appreci	-5367
▁Prote	-5368
▁bench	-5369
▁conver	-5370
▁touched	-5371
▁accepted	-5372
▁nit	-5373
riculum	-5374
▁technical	-5375
▁joined	-5376
▁mainly	-5377
olars	-5378
▁allowing	-5379
▁diagnosis	-5380
astern	-5381
▁Elect	-5382
▁Those	-5383
atric	-5384
▁atmosphere	-5385
▁(199	-5386
▁Data	-5387
▁Fred	-5388
▁Make	-5389
▁continues	-5390
▁correspond	-5391
reland	-5392
▁switch	-5393
▁concern	-5394
ndrome	-5395
▁toxic	-5396
▁trial	-5397
shine	-5398
▁Medicine	-5399
tr	-5400
▁90	-5401
ndom	-5402
vis	-5403
▁weap	-5404
▁talked	-5405
▁library	-5406
AD	-5407
▁Tex	-5408
ashed	-5409
▁bucket	-5410
▁wondered	-5411
▁muscles	-5412
▁languages	-5413
aj	-5414
▁vehicle	-5415
▁(18	-5416
▁shut	-5417
▁firm	-5418
▁concerns	-5419
▁centuries	-5420
▁Cr	-5421
▁Service	-5422
2)	-5423
▁Flor	-5424
▁blog	-5425
▁monkey	-5426
▁army	-5427
▁handle	-5428
▁starts	-5429
▁occurred	-5430
▁Mass	-5431
▁Women	-5432
▁primarily	-5433
encing	-5434
rier	-5435
▁brief	-5436
▁songs	-5437
▁Energy	-5438
▁nervous	-5439
▁intended	-5440
isa	-5441
acters	-5442
ga	-5443
▁diss	-5444
▁Robert	-5445
▁shoot	-5446
going	-5447
▁Such	-5448
standing	-5449
▁Commission	-5450
If	-5451
ael	-5452
▁Army	-5453
▁defic	-5454
▁highlight	-5455
▁Jews	-5456
▁jobs	-5457
▁Civil	-5458
▁therm	-5459
▁vent	-5460
5).	-5461
▁authority	-5462
▁Mac	-5463
7).	-5464
▁largely	-5465
▁studied	-5466
▁Information	-5467
▁engineering	-5468
▁chain	-5469
▁birthday	-5470
▁mud	-5471
▁hero	-5472
west	-5473
▁painting	-5474
▁electrical	-5475
▁Learning	-5476
▁practical	-5477
▁stem	-5478
▁links	-5479
▁THE	-5480
bert	-5481
▁raise	-5482
athered	-5483
ugh	-5484
▁liquid	-5485
▁despite	-5486
▁Def	-5487
▁Ken	-5488
▁boo	-5489
▁shook	-5490
▁Econom	-5491
▁combined	-5492
gu	-5493
rows	-5494
▁ash	-5495
▁ideal	-5496
▁Jose	-5497
anta	-5498
▁192	-5499
▁Mill	-5500
▁efficiency	-5501
▁consequences	-5502
▁Ireland	-5503
▁persist	-5504
box	-5505
ormal	-5506
iger	-5507
▁melt	-5508
▁facts	-5509
▁Sammy	-5510
▁begins	-5511
▁whenever	-5512
▁grade	-5513
▁procedure	-5514
▁Virgin	-5515
lig	-5516
nam	-5517
▁professor	-5518
▁comfortable	-5519
▁aren	-5520
▁Academ	-5521
▁claims	-5522
▁incred	-5523
▁pollution	-5524
US	-5525
asp	-5526
▁Step	-5527
▁Bay	-5528
aturally	-5529
▁particles	-5530
▁pros	-5531
▁Rob	-5532
▁vital	-5533
▁biggest	-5534
pet	-5535
▁Who	-5536
▁Histor	-5537
▁extend	-5538
▁apart	-5539
▁confused	-5540
▁Old	-5541
▁bush	-5542
▁frequency	-5543
umber	-5544
▁purposes	-5545
ett	-5546
▁Sus	-5547
▁Exam	-5548
▁Common	-5549
oxide	-5550
▁branches	-5551
▁aw	-5552
▁definition	-5553
▁awareness	-5554
▁Have	-5555
band	-5556
▁explan	-5557
▁signal	-5558
▁Technology	-5559
omin	-5560
▁naught	-5561
▁persons	-5562
▁reduction	-5563
▁70	-5564
atever	-5565
▁Despite	-5566
▁indicate	-5567
▁renew	-5568
▁Mexico	-5569
▁thoughts	-5570
▁random	-5571
▁calm	-5572
▁ax	-5573
comes	-5574
▁lucky	-5575
4).	-5576
col	-5577
▁enem	-5578
▁Ca	-5579
▁Sum	-5580
▁motiv	-5581
▁fundamental	-5582
under	-5583
▁camera	-5584
▁hugs	-5585
▁certainly	-5586
▁sustainable	-5587
▁comment	-5588
▁feather	-5589
add	-5590
▁woke	-5591
▁calls	-5592
▁minimum	-5593
▁extent	-5594
▁unusual	-5595
6).	-5596
▁focused	-5597
TS	-5598
RO	-5599
uce	-5600
alle	-5601
▁Russia	-5602
ipping	-5603
▁27	-5604
▁surf	-5605
▁phase	-5606
▁Nor	-5607
▁bond	-5608
▁sunshine	-5609
▁Charles	-5610
▁stom	-5611
igration	-5612
5)	-5613
unte	-5614
▁explains	-5615
then	-5616
▁naughty	-5617
inating	-5618
emic	-5619
▁stuff	-5620
▁familiar	-5621
▁van	-5622
▁chocolate	-5623
▁situations	-5624
▁flat	-5625
▁Inde	-5626
▁maximum	-5627
▁accidentally	-5628
osen	-5629
▁horm	-5630
▁Stand	-5631
▁greatest	-5632
▁snake	-5633
▁Fam	-5634
verty	-5635
▁Dise	-5636
▁reliable	-5637
▁characters	-5638
▁Sou	-5639
▁knee	-5640
▁crown	-5641
▁prison	-5642
▁sector	-5643
ulin	-5644
▁tro	-5645
▁detailed	-5646
▁Sov	-5647
▁Texas	-5648
▁specifically	-5649
4)	-5650
▁stood	-5651
▁poverty	-5652
rams	-5653
▁responsibility	-5654
▁relieved	-5655
▁Wind	-5656
▁habitat	-5657
▁perspective	-5658
RI	-5659
enses	-5660
▁discrim	-5661
▁amb	-5662
olute	-5663
ville	-5664
▁sched	-5665
li	-5666
▁Str	-5667
▁perman	-5668
▁contribute	-5669
▁Mem	-5670
BN	-5671
▁vast	-5672
▁escape	-5673
osite	-5674
▁goods	-5675
▁succeed	-5676
▁sheep	-5677
▁couple	-5678
▁foss	-5679
▁opinion	-5680
▁divided	-5681
▁forth	-5682
▁react	-5683
▁formation	-5684
▁Net	-5685
▁trig	-5686
ints	-5687
▁astron	-5688
▁dial	-5689
ifying	-5690
▁excellent	-5691
▁Book	-5692
▁tasks	-5693
▁whist	-5694
inet	-5695
▁samples	-5696
▁existence	-5697
▁Bible	-5698
▁approaches	-5699
▁seeing	-5700
oop	-5701
▁unp	-5702
oured	-5703
roduct	-5704
▁mere	-5705
▁rein	-5706
▁purs	-5707
▁agricultural	-5708
▁hyper	-5709
▁rainbow	-5710
▁Sa	-5711
▁sunny	-5712
▁188	-5713
▁Del	-5714
▁potentially	-5715
▁Disc	-5716
▁https	-5717
ache	-5718
▁coffe	-5719
▁BC	-5720
chers	-5721
ads	-5722
what	-5723
ittens	-5724
▁label	-5725
▁Together	-5726
▁email	-5727
resents	-5728
▁otherwise	-5729
▁AD	-5730
▁director	-5731
▁revolution	-5732
van	-5733
inent	-5734
▁Pacific	-5735
▁Libr	-5736
▁tick	-5737
▁fluid	-5738
▁shore	-5739
▁happening	-5740
▁surrounding	-5741
▁slightly	-5742
▁Google	-5743
▁Yet	-5744
▁Latin	-5745
▁attacks	-5746
▁consists	-5747
▁hundreds	-5748
mas	-5749
▁sides	-5750
▁prepare	-5751
▁agreement	-5752
EL	-5753
uing	-5754
▁mort	-5755
▁holds	-5756
▁finger	-5757
▁height	-5758
ructions	-5759
▁monitoring	-5760
▁parties	-5761
▁proport	-5762
▁career	-5763
▁calling	-5764
▁satisf	-5765
▁impacts	-5766
▁Middle	-5767
▁treatments	-5768
▁volcan	-5769
▁operating	-5770
▁advance	-5771
bits	-5772
▁fif	-5773
▁controlled	-5774
urt	-5775
▁cert	-5776
▁insurance	-5777
sts	-5778
ocal	-5779
▁chief	-5780
▁pup	-5781
▁refers	-5782
▁Land	-5783
▁spotted	-5784
▁Constitution	-5785
▁gathered	-5786
▁Note	-5787
▁crops	-5788
▁coffee	-5789
▁CD	-5790
rolog	-5791
▁discussed	-5792
▁cute	-5793
1)	-5794
▁adding	-5795
▁topics	-5796
rain	-5797
▁affects	-5798
▁kil	-5799
▁depth	-5800
▁governments	-5801
bor	-5802
uke	-5803
▁bugs	-5804
▁nations	-5805
▁impossible	-5806
▁increasingly	-5807
▁dirt	-5808
▁cards	-5809
▁title	-5810
▁interests	-5811
ourage	-5812
▁ecosystem	-5813
▁movements	-5814
▁lands	-5815
▁worse	-5816
▁domestic	-5817
▁biological	-5818
umps	-5819
▁recognize	-5820
▁Only	-5821
▁Columb	-5822
▁saved	-5823
▁Studies	-5824
▁honest	-5825
▁spiritual	-5826
▁pra	-5827
▁secure	-5828
▁Wild	-5829
▁click	-5830
▁Catholic	-5831
▁Hy	-5832
▁fib	-5833
▁tank	-5834
▁brush	-5835
▁tested	-5836
▁roots	-5837
pic	-5838
zard	-5839
▁Company	-5840
?”	-5841
▁investment	-5842
▁substant	-5843
▁Nature	-5844
▁apples	-5845
▁searched	-5846
▁represents	-5847
cycl	-5848
ensus	-5849
▁accompl	-5850
aker	-5851
▁Pub	-5852
▁rope	-5853
▁stated	-5854
▁documents	-5855
▁views	-5856
▁nutrients	-5857
▁pile	-5858
▁convent	-5859
ams	-5860
▁soldiers	-5861
▁liver	-5862
anes	-5863
▁AN	-5864
▁oral	-5865
▁Rights	-5866
▁double	-5867
▁sandw	-5868
tion	-5869
▁Twe	-5870
There	-5871
▁bones	-5872
▁Control	-5873
▁destroyed	-5874
▁officials	-5875
▁rice	-5876
▁km	-5877
▁stronger	-5878
▁contem	-5879
▁married	-5880
▁cab	-5881
ounce	-5882
▁2000	-5883
▁narrow	-5884
▁Next	-5885
▁subjects	-5886
rastructure	-5887
▁Sea	-5888
▁concerned	-5889
▁residents	-5890
▁recy	-5891
▁proteins	-5892
fish	-5893
▁metab	-5894
▁facilities	-5895
Lily	-5896
which	-5897
▁Review	-5898
▁apparent	-5899
rep	-5900
▁answers	-5901
hma	-5902
assed	-5903
ION	-5904
osa	-5905
▁wash	-5906
igenous	-5907
point	-5908
▁Mont	-5909
▁Att	-5910
▁alt	-5911
▁Psych	-5912
▁commit	-5913
▁western	-5914
▁Ap	-5915
▁Keep	-5916
▁lessons	-5917
▁zoo	-5918
▁reform	-5919
▁missing	-5920
alian	-5921
.;	-5922
▁meal	-5923
My	-5924
usive	-5925
▁periods	-5926
▁Pers	-5927
▁falls	-5928
▁lovely	-5929
▁Bro	-5930
▁loves	-5931
▁allerg	-5932
▁ahead	-5933
500	-5934
▁valid	-5935
▁revealed	-5936
▁Blue	-5937
▁ages	-5938
aws	-5939
▁moist	-5940
▁deer	-5941
’.	-5942
▁elder	-5943
aped	-5944
rich	-5945
▁typical	-5946
▁laughing	-5947
aked	-5948
state	-5949
ague	-5950
itage	-5951
▁Environmental	-5952
ented	-5953
▁Lake	-5954
▁portion	-5955
hi	-5956
▁gate	-5957
▁abuse	-5958
CO	-5959
oons	-5960
▁suffer	-5961
iate	-5962
▁fertil	-5963
▁Work	-5964
▁marine	-5965
▁concentration	-5966
▁Prov	-5967
▁carrying	-5968
rots	-5969
asive	-5970
cest	-5971
▁cats	-5972
down	-5973
▁crisis	-5974
▁landscape	-5975
▁29	-5976
▁delight	-5977
▁ingredients	-5978
▁Canadian	-5979
cture	-5980
▁selected	-5981
▁tips	-5982
▁Long	-5983
▁instruction	-5984
cop	-5985
▁coin	-5986
▁accurate	-5987
▁naturally	-5988
liam	-5989
▁detail	-5990
▁employees	-5991
▁kite	-5992
MS	-5993
Of	-5994
▁Bill	-5995
▁Lin	-5996
itness	-5997
▁wheel	-5998
▁stones	-5999
▁rural	-6000
▁immun	-6001
▁Figure	-6002
▁containing	-6003
▁narr	-6004
▁rapidly	-6005
24	-6006
cium	-6007
▁gum	-6008
▁smiling	-6009
▁7.	-6010
▁Irish	-6011
▁subsequ	-6012
▁external	-6013
raw	-6014
iform	-6015
▁doctors	-6016
▁Come	-6017
▁Emily	-6018
▁component	-6019
name	-6020
kins	-6021
▁Hol	-6022
▁medications	-6023
▁fro	-6024
agers	-6025
▁hem	-6026
▁circumst	-6027
▁nutrition	-6028
▁Expl	-6029
▁formal	-6030
▁stable	-6031
▁gif	-6032
▁tasty	-6033
▁asleep	-6034
▁Tem	-6035
▁Group	-6036
▁gently	-6037
▁mild	-6038
▁universe	-6039
▁Id	-6040
6)	-6041
He	-6042
▁enorm	-6043
▁justice	-6044
▁ISBN	-6045
▁myth	-6046
▁rolled	-6047
iel	-6048
acts	-6049
▁borrow	-6050
▁Federal	-6051
▁disturb	-6052
alse	-6053
fall	-6054
▁oven	-6055
▁clever	-6056
▁speaking	-6057
▁Foundation	-6058
celer	-6059
▁hello	-6060
▁repeated	-6061
33	-6062
▁sed	-6063
▁syn	-6064
▁argument	-6065
antly	-6066
pected	-6067
▁Office	-6068
▁neut	-6069
▁Louis	-6070
▁flight	-6071
▁Florida	-6072
▁NO	-6073
▁Dec	-6074
▁tries	-6075
▁sen	-6076
▁chann	-6077
▁depends	-6078
▁Management	-6079
▁Cy	-6080
▁Carol	-6081
▁2007	-6082
zen	-6083
attle	-6084
ellect	-6085
racy	-6086
▁Jud	-6087
ctic	-6088
▁sets	-6089
fast	-6090
▁plays	-6091
▁visible	-6092
ait	-6093
▁Nut	-6094
▁Rad	-6095
▁shining	-6096
▁exchange	-6097
itter	-6098
▁Take	-6099
inding	-6100
▁funding	-6101
▁wid	-6102
▁mamm	-6103
ario	-6104
▁cognitive	-6105
inter	-6106
▁dut	-6107
▁figures	-6108
lers	-6109
▁Jenny	-6110
▁Professor	-6111
omic	-6112
itors	-6113
osph	-6114
▁mosqu	-6115
AP	-6116
den	-6117
▁pudd	-6118
BC	-6119
▁aer	-6120
pring	-6121
▁coc	-6122
▁IN	-6123
▁pure	-6124
▁ended	-6125
ava	-6126
▁crim	-6127
▁crucial	-6128
▁supposed	-6129
▁sports	-6130
▁distingu	-6131
tes	-6132
with	-6133
▁holid	-6134
▁recon	-6135
▁Nav	-6136
▁Frank	-6137
▁stomach	-6138
▁precise	-6139
▁ske	-6140
▁spr	-6141
▁suffering	-6142
▁curriculum	-6143
itud	-6144
rate	-6145
▁10.	-6146
▁veter	-6147
▁decrease	-6148
long	-6149
know	-6150
▁ped	-6151
▁files	-6152
▁reward	-6153
inations	-6154
▁regularly	-6155
▁Ox	-6156
anged	-6157
▁cryst	-6158
▁peaceful	-6159
▁describes	-6160
▁fab	-6161
▁cozy	-6162
▁regional	-6163
▁thr	-6164
▁gray	-6165
liament	-6166
▁Pen	-6167
▁tid	-6168
uits	-6169
▁advoc	-6170
ascular	-6171
▁secondary	-6172
▁Soviet	-6173
▁stored	-6174
▁unlike	-6175
▁Last	-6176
▁Global	-6177
▁defend	-6178
▁marriage	-6179
▁scholars	-6180
▁Joseph	-6181
▁cooper	-6182
▁Australian	-6183
▁yog	-6184
uting	-6185
isp	-6186
istan	-6187
▁flav	-6188
▁sheet	-6189
▁latest	-6190
▁pregnancy	-6191
▁Div	-6192
▁blow	-6193
▁incl	-6194
▁Labor	-6195
ibilities	-6196
▁struggle	-6197
▁Jo	-6198
▁beauty	-6199
▁Nations	-6200
▁earthqu	-6201
▁soul	-6202
▁cleaning	-6203
▁photo	-6204
▁latter	-6205
▁introduction	-6206
▁millions	-6207
▁Home	-6208
▁nan	-6209
▁achieved	-6210
▁database	-6211
oos	-6212
▁embarr	-6213
▁survival	-6214
▁computers	-6215
-7	-6216
ita	-6217
otic	-6218
ingly	-6219
▁Power	-6220
▁flour	-6221
▁lights	-6222
▁capable	-6223
▁guess	-6224
▁principle	-6225
oted	-6226
ocratic	-6227
uilding	-6228
▁afford	-6229
▁outcomes	-6230
▁originally	-6231
▁Ro	-6232
▁papers	-6233
▁cooking	-6234
ST	-6235
▁leadership	-6236
▁Stat	-6237
▁thanks	-6238
▁vaccine	-6239
▁steel	-6240
▁prices	-6241
▁shot	-6242
▁digest	-6243
ini	-6244
▁san	-6245
26	-6246
▁procedures	-6247
abies	-6248
▁spoon	-6249
▁absorb	-6250
roduce	-6251
▁recovery	-6252
▁substance	-6253
agues	-6254
▁insects	-6255
ran	-6256
▁networks	-6257
roid	-6258
].	-6259
aria	-6260
▁medium	-6261
▁protocol	-6262
▁supplies	-6263
▁comprehensive	-6264
iated	-6265
▁Engine	-6266
▁poet	-6267
▁truly	-6268
▁putting	-6269
fortunately	-6270
alysis	-6271
vironments	-6272
umin	-6273
▁repair	-6274
▁harvest	-6275
▁inflammation	-6276
▁Cancer	-6277
isted	-6278
▁pair	-6279
▁obtained	-6280
▁entered	-6281
opl	-6282
▁Whe	-6283
▁2020	-6284
▁Gold	-6285
▁powers	-6286
▁absolute	-6287
▁infected	-6288
▁possibly	-6289
▁diversity	-6290
▁zoom	-6291
sembly	-6292
▁eager	-6293
esity	-6294
▁twice	-6295
usal	-6296
▁Know	-6297
▁Library	-6298
▁adopted	-6299
athy	-6300
▁tub	-6301
▁35	-6302
▁Virginia	-6303
▁refuge	-6304
▁rose	-6305
▁uncom	-6306
▁warming	-6307
▁185	-6308
▁era	-6309
▁satell	-6310
▁error	-6311
▁opening	-6312
▁ourselves	-6313
itty	-6314
▁wheat	-6315
▁battery	-6316
▁survive	-6317
▁attached	-6318
▁businesses	-6319
▁scr	-6320
▁Chic	-6321
▁ears	-6322
▁spider	-6323
▁Cat	-6324
▁interview	-6325
allel	-6326
▁creature	-6327
ING	-6328
▁toler	-6329
▁windows	-6330
▁studying	-6331
▁transmission	-6332
▁normally	-6333
▁tomorrow	-6334
▁phr	-6335
oli	-6336
▁appearance	-6337
▁possibility	-6338
1).	-6339
▁Time	-6340
isters	-6341
▁deaths	-6342
▁Italy	-6343
▁agriculture	-6344
▁3,	-6345
illa	-6346
▁stir	-6347
▁syndrome	-6348
28	-6349
rons	-6350
▁producing	-6351
▁missed	-6352
9).	-6353
Hey	-6354
wered	-6355
▁ancest	-6356
▁Ext	-6357
▁rhy	-6358
▁movie	-6359
▁Tor	-6360
▁Climate	-6361
▁infrastructure	-6362
▁param	-6363
▁safely	-6364
ota	-6365
▁Kh	-6366
▁choices	-6367
2).	-6368
▁inches	-6369
▁Phot	-6370
▁perce	-6371
▁Ham	-6372
▁possess	-6373
cul	-6374
▁improving	-6375
ashion	-6376
anguage	-6377
▁candid	-6378
▁constitution	-6379
▁hiding	-6380
▁massive	-6381
3)	-6382
▁examine	-6383
▁framework	-6384
ka	-6385
▁enormous	-6386
free	-6387
cific	-6388
ificial	-6389
▁jew	-6390
▁imper	-6391
▁troops	-6392
▁chapter	-6393
▁anywhere	-6394
▁guidelines	-6395
▁Mad	-6396
ifies	-6397
▁ducks	-6398
▁guard	-6399
▁internet	-6400
ript	-6401
▁Sol	-6402
▁Lisa	-6403
▁marked	-6404
▁Vis	-6405
▁harder	-6406
▁treats	-6407
cel	-6408
▁ladder	-6409
uous	-6410
▁Hall	-6411
lements	-6412
tenance	-6413
▁sensitive	-6414
DF	-6415
▁indeed	-6416
▁minute	-6417
▁vehicles	-6418
▁judge	-6419
nce	-6420
▁depos	-6421
▁intake	-6422
▁unless	-6423
▁acts	-6424
olester	-6425
▁hus	-6426
press	-6427
▁extract	-6428
uts	-6429
▁resc	-6430
azine	-6431
▁wand	-6432
▁delay	-6433
▁failed	-6434
▁Committee	-6435
▁gall	-6436
▁row	-6437
▁Unfortunately	-6438
rors	-6439
▁format	-6440
▁prevention	-6441
▁chart	-6442
▁gal	-6443
▁none	-6444
▁generate	-6445
45	-6446
hus	-6447
7)	-6448
Is	-6449
3).	-6450
ris	-6451
icing	-6452
▁creates	-6453
▁sne	-6454
▁entirely	-6455
▁||	-6456
umes	-6457
▁thor	-6458
▁medication	-6459
.|	-6460
▁wra	-6461
▁Det	-6462
▁Lab	-6463
▁lem	-6464
▁administration	-6465
▁Gal	-6466
▁Early	-6467
▁diverse	-6468
▁Ast	-6469
▁Event	-6470
▁agencies	-6471
▁AC	-6472
ymph	-6473
▁chose	-6474
orter	-6475
▁Viet	-6476
▁frustr	-6477
▁facilit	-6478
▁equival	-6479
▁Camp	-6480
▁furn	-6481
▁flash	-6482
▁minim	-6483
▁script	-6484
ropical	-6485
▁expressed	-6486
▁housing	-6487
▁Conf	-6488
▁micros	-6489
▁aircraft	-6490
▁desire	-6491
▁lifest	-6492
▁Michael	-6493
war	-6494
urse	-6495
▁frag	-6496
igation	-6497
ictionary	-6498
▁authorities	-6499
▁Big	-6500
▁Mrs	-6501
▁tut	-6502
▁rocket	-6503
▁interact	-6504
▁vote	-6505
▁selection	-6506
▁Bre	-6507
▁integ	-6508
▁Ess	-6509
▁worldwide	-6510
etime	-6511
▁enzy	-6512
▁electronic	-6513
▁Den	-6514
▁replaced	-6515
tage	-6516
▁Ter	-6517
▁remote	-6518
▁burning	-6519
▁Cap	-6520
▁fasc	-6521
▁Though	-6522
▁chicken	-6523
▁spending	-6524
ocracy	-6525
▁Micro	-6526
▁extensive	-6527
▁environments	-6528
▁Free	-6529
olesterol	-6530
▁wildlife	-6531
▁Vict	-6532
▁Learn	-6533
▁decade	-6534
▁younger	-6535
▁intellect	-6536
▁Empire	-6537
▁instrument	-6538
icked	-6539
▁dish	-6540
▁landed	-6541
▁server	-6542
▁happiness	-6543
▁Cult	-6544
ca	-6545
▁shr	-6546
75	-6547
▁prem	-6548
berry	-6549
▁lie	-6550
▁corpor	-6551
▁listed	-6552
▁sentence	-6553
ogue	-6554
▁nine	-6555
▁Natural	-6556
▁university	-6557
▁Care	-6558
▁assistance	-6559
▁Po	-6560
▁Exper	-6561
Good	-6562
eters	-6563
icide	-6564
itative	-6565
ston	-6566
▁obtain	-6567
▁greatly	-6568
▁moves	-6569
▁ordinary	-6570
▁remaining	-6571
ona	-6572
▁nurs	-6573
▁skill	-6574
▁description	-6575
ml	-6576
▁tow	-6577
▁antibiot	-6578
▁concrete	-6579
stream	-6580
olph	-6581
▁imagine	-6582
arant	-6583
▁drum	-6584
raction	-6585
▁Design	-6586
▁forests	-6587
▁suitable	-6588
▁Report	-6589
▁circuit	-6590
▁harmful	-6591
▁Southern	-6592
▁Mars	-6593
▁budget	-6594
▁reader	-6595
▁routine	-6596
▁audience	-6597
▁experiments	-6598
▁mur	-6599
▁glob	-6600
▁mobile	-6601
▁readers	-6602
▁extended	-6603
▁Eth	-6604
▁Study	-6605
.’	-6606
olve	-6607
▁smelled	-6608
akers	-6609
29	-6610
▁Clin	-6611
▁engage	-6612
▁enhance	-6613
▁monitor	-6614
▁injuries	-6615
▁mysterious	-6616
hist	-6617
▁zero	-6618
▁favour	-6619
▁conscious	-6620
ua	-6621
▁Ins	-6622
▁founded	-6623
▁circumstances	-6624
▁drew	-6625
no	-6626
inction	-6627
▁elderly	-6628
▁behaviour	-6629
▁Ill	-6630
▁adequ	-6631
▁decline	-6632
▁visited	-6633
itionally	-6634
▁administr	-6635
▁foundation	-6636
How	-6637
ading	-6638
▁Click	-6639
▁index	-6640
▁implementation	-6641
ki	-6642
ena	-6643
▁mice	-6644
▁optim	-6645
▁spaces	-6646
▁crayons	-6647
orses	-6648
▁Among	-6649
▁abund	-6650
▁Northern	-6651
tering	-6652
▁lying	-6653
pal	-6654
▁clay	-6655
being	-6656
▁stages	-6657
▁cutting	-6658
▁bees	-6659
iology	-6660
▁tasted	-6661
▁ber	-6662
▁Oh	-6663
▁telling	-6664
▁whatever	-6665
▁opposite	-6666
’,	-6667
lets	-6668
atoes	-6669
luding	-6670
▁sack	-6671
▁doubt	-6672
▁critic	-6673
▁intelligence	-6674
100	-6675
▁300	-6676
organ	-6677
▁Rome	-6678
normal	-6679
▁cheer	-6680
▁evalu	-6681
▁tightly	-6682
▁supplement	-6683
▁flexible	-6684
DP	-6685
teries	-6686
izer	-6687
▁surve	-6688
erals	-6689
▁ships	-6690
utch	-6691
▁Const	-6692
mary	-6693
icians	-6694
▁terri	-6695
ada	-6696
ora	-6697
▁Fre	-6698
paper	-6699
ras	-6700
itan	-6701
cribed	-6702
eared	-6703
▁poem	-6704
▁danced	-6705
▁Richard	-6706
▁migr	-6707
▁derived	-6708
▁manufacturing	-6709
bridge	-6710
▁PM	-6711
▁rising	-6712
▁successfully	-6713
As	-6714
oral	-6715
▁tough	-6716
hemical	-6717
▁volunte	-6718
▁neighborhood	-6719
ensions	-6720
▁www	-6721
▁brothers	-6722
▁PC	-6723
▁answered	-6724
och	-6725
▁produces	-6726
▁500	-6727
▁horiz	-6728
▁snowman	-6729
▁laboratory	-6730
▁USA	-6731
▁expans	-6732
ugg	-6733
▁outl	-6734
▁chosen	-6735
osaur	-6736
ione	-6737
▁stroke	-6738
▁acceler	-6739
LE	-6740
▁generated	-6741
▁instructions	-6742
cers	-6743
▁Alice	-6744
▁holes	-6745
▁fewer	-6746
▁aqu	-6747
▁ham	-6748
▁hall	-6749
angers	-6750
▁inner	-6751
▁cookie	-6752
plicated	-6753
▁strengthen	-6754
sey	-6755
▁Sl	-6756
▁Pan	-6757
Americ	-6758
ivery	-6759
▁supports	-6760
▁Street	-6761
▁Lee	-6762
ighed	-6763
▁poison	-6764
▁Mittens	-6765
isdom	-6766
▁silver	-6767
▁grav	-6768
▁shelf	-6769
▁fabric	-6770
▁accounts	-6771
gent	-6772
▁finds	-6773
▁stands	-6774
-9	-6775
▁grab	-6776
▁agency	-6777
▁ath	-6778
▁prepar	-6779
▁shift	-6780
▁pip	-6781
orith	-6782
▁crop	-6783
▁wore	-6784
assion	-6785
▁issued	-6786
▁fishing	-6787
ds	-6788
▁laser	-6789
▁Security	-6790
▁healthcare	-6791
cher	-6792
▁Bur	-6793
▁unable	-6794
▁calcium	-6795
▁limits	-6796
▁mistake	-6797
▁everyday	-6798
▁professionals	-6799
gi	-6800
▁Dire	-6801
Re	-6802
▁march	-6803
▁childhood	-6804
mun	-6805
HO	-6806
▁locations	-6807
ping	-6808
▁Spain	-6809
▁discipl	-6810
▁listening	-6811
8).	-6812
▁Paris	-6813
▁sudden	-6814
▁split	-6815
▁matters	-6816
▁presents	-6817
▁colleagues	-6818
▁employment	-6819
ala	-6820
hand	-6821
▁shy	-6822
▁Sign	-6823
▁club	-6824
▁thousand	-6825
zil	-6826
angle	-6827
iture	-6828
▁Mer	-6829
▁hydrogen	-6830
▁supporting	-6831
▁creatures	-6832
ront	-6833
▁Sing	-6834
▁crow	-6835
cling	-6836
▁alle	-6837
▁straw	-6838
▁Italian	-6839
▁acids	-6840
▁Chicago	-6841
osh	-6842
sen	-6843
▁heads	-6844
▁permanent	-6845
▁consistent	-6846
▁willing	-6847
▁represented	-6848
level	-6849
▁fisher	-6850
▁customers	-6851
▁IP	-6852
▁1990	-6853
▁brings	-6854
▁enable	-6855
▁therap	-6856
▁Academy	-6857
▁III	-6858
▁carrots	-6859
▁tape	-6860
host	-6861
▁Disease	-6862
27	-6863
gly	-6864
▁OF	-6865
▁courses	-6866
▁vessels	-6867
called	-6868
▁alive	-6869
▁false	-6870
▁twenty	-6871
▁compr	-6872
▁Jul	-6873
▁Jake	-6874
▁purchase	-6875
▁celebrate	-6876
▁immediate	-6877
▁architecture	-6878
burg	-6879
▁187	-6880
▁Wood	-6881
▁ends	-6882
▁photograph	-6883
▁circles	-6884
ungle	-6885
▁overl	-6886
▁painted	-6887
▁competition	-6888
▁gluc	-6889
▁sequence	-6890
▁electron	-6891
▁variable	-6892
othe	-6893
▁184	-6894
▁prove	-6895
▁refused	-6896
▁lock	-6897
▁intervention	-6898
▁vac	-6899
▁craft	-6900
▁centre	-6901
▁beneficial	-6902
mat	-6903
They	-6904
▁realize	-6905
▁instruments	-6906
▁transportation	-6907
venue	-6908
▁suit	-6909
▁Royal	-6910
▁jumping	-6911
▁turning	-6912
▁difficulty	-6913
RC	-6914
▁suffe	-6915
▁furry	-6916
▁nerve	-6917
▁parallel	-6918
▁necessarily	-6919
oster	-6920
▁excite	-6921
▁cultures	-6922
▁institution	-6923
▁Current	-6924
riting	-6925
▁boxes	-6926
oa	-6927
while	-6928
unched	-6929
Be	-6930
▁Sk	-6931
itely	-6932
▁consumers	-6933
▁philosophy	-6934
▁45	-6935
gans	-6936
▁Age	-6937
▁tube	-6938
▁gro	-6939
▁lies	-6940
▁zone	-6941
▁download	-6942
▁cheap	-6943
▁couch	-6944
▁domin	-6945
▁neuro	-6946
▁stock	-6947
▁domain	-6948
▁maintenance	-6949
yer	-6950
▁loyal	-6951
▁epid	-6952
▁sleeping	-6953
▁dedicated	-6954
▁List	-6955
▁argue	-6956
▁clock	-6957
ocking	-6958
▁traum	-6959
▁communicate	-6960
▁blew	-6961
▁kidney	-6962
▁forgive	-6963
▁indicates	-6964
38	-6965
▁fossil	-6966
ediatric	-6967
▁machines	-6968
▁occasion	-6969
▁encouraged	-6970
▁territory	-6971
▁television	-6972
36	-6973
▁ending	-6974
Come	-6975
▁Sym	-6976
▁Form	-6977
▁uncle	-6978
▁Valley	-6979
▁county	-6980
▁Administ	-6981
▁interaction	-6982
An	-6983
icted	-6984
▁Find	-6985
▁fingers	-6986
....	-6987
▁debate	-6988
▁organisms	-6989
▁vulnerable	-6990
▁ori	-6991
▁obst	-6992
▁temple	-6993
▁regulations	-6994
▁conventional	-6995
hips	-6996
▁Prot	-6997
▁Three	-6998
▁funds	-6999
▁simpl	-7000
▁discrimination	-7001
heast	-7002
▁Lar	-7003
▁sour	-7004
ishment	-7005
▁picnic	-7006
▁screamed	-7007
▁Look	-7008
▁Start	-7009
▁warning	-7010
▁por	-7011
ivered	-7012
35	-7013
▁mirror	-7014
uh	-7015
▁inhab	-7016
▁islands	-7017
▁drawn	-7018
▁eastern	-7019
▁breakfast	-7020
imer	-7021
▁Wik	-7022
▁prompt	-7023
▁alert	-7024
▁drain	-7025
una	-7026
▁incredible	-7027
how	-7028
▁density	-7029
iac	-7030
▁Gree	-7031
▁Party	-7032
▁Cre	-7033
▁clust	-7034
▁relief	-7035
▁Dig	-7036
ooking	-7037
99	-7038
▁8.	-7039
▁worm	-7040
▁dental	-7041
onia	-7042
pass	-7043
▁cholesterol	-7044
▁exists	-7045
eenth	-7046
▁lift	-7047
▁sod	-7048
▁spoke	-7049
▁percentage	-7050
iano	-7051
▁sem	-7052
rey	-7053
aimed	-7054
power	-7055
▁tears	-7056
▁evening	-7057
▁fashion	-7058
▁Back	-7059
▁Agricult	-7060
▁chrom	-7061
▁packed	-7062
▁selfish	-7063
▁fest	-7064
▁breathing	-7065
ocy	-7066
▁teen	-7067
▁fed	-7068
▁Jeff	-7069
apping	-7070
▁Creat	-7071
▁writer	-7072
▁award	-7073
▁explo	-7074
▁inhib	-7075
▁signals	-7076
▁2016	-7077
▁puzzle	-7078
▁feeding	-7079
▁Color	-7080
▁Times	-7081
▁accum	-7082
ployment	-7083
▁responses	-7084
▁pir	-7085
▁reserv	-7086
▁neither	-7087
ih	-7088
car	-7089
eria	-7090
▁pron	-7091
▁snacks	-7092
▁Men	-7093
▁voc	-7094
▁prince	-7095
▁bringing	-7096
▁ultimately	-7097
▁cham	-7098
▁players	-7099
▁habits	-7100
▁confidence	-7101
▁composition	-7102
▁cater	-7103
▁deeper	-7104
▁guarant	-7105
▁whereas	-7106
▁explanation	-7107
▁Zeal	-7108
▁asthma	-7109
▁comments	-7110
▁Check	-7111
▁lifestyle	-7112
▁mechanism	-7113
bra	-7114
▁carb	-7115
▁compens	-7116
EP	-7117
▁usage	-7118
▁carrot	-7119
▁Equ	-7120
▁Non	-7121
▁Yes	-7122
▁laid	-7123
cyclop	-7124
▁trick	-7125
▁jungle	-7126
▁magnetic	-7127
▁Py	-7128
▁Haw	-7129
▁piz	-7130
▁wing	-7131
▁Brazil	-7132
▁restaur	-7133
▁observations	-7134
▁shirt	-7135
▁ordered	-7136
▁delivery	-7137
▁emotions	-7138
▁horses	-7139
▁Eventually	-7140
▁Bank	-7141
▁Martin	-7142
▁Top	-7143
▁Does	-7144
▁mood	-7145
▁Native	-7146
▁Sciences	-7147
▁hypothes	-7148
▁resulted	-7149
▁Jac	-7150
usions	-7151
▁layers	-7152
▁statistics	-7153
▁underlying	-7154
▁cos	-7155
▁Fort	-7156
▁bags	-7157
▁dioxide	-7158
▁Moreover	-7159
▁falling	-7160
▁witness	-7161
▁comparison	-7162
▁whale	-7163
▁Effect	-7164
▁transition	-7165
teen	-7166
▁resolution	-7167
▁gap	-7168
▁raw	-7169
▁nuts	-7170
▁tons	-7171
▁algorith	-7172
▁planned	-7173
▁negot	-7174
▁Pop	-7175
▁Pract	-7176
▁border	-7177
▁cultiv	-7178
▁descend	-7179
▁trained	-7180
uced	-7181
cular	-7182
stein	-7183
▁Board	-7184
▁Sever	-7185
▁Chapter	-7186
▁Kingdom	-7187
▁passing	-7188
zer	-7189
▁Scott	-7190
▁Christmas	-7191
▁equivalent	-7192
▁fan	-7193
▁desert	-7194
▁gained	-7195
▁dollars	-7196
olt	-7197
▁4,	-7198
▁dent	-7199
▁Face	-7200
▁Rom	-7201
▁acknow	-7202
▁excitement	-7203
▁rid	-7204
erior	-7205
▁horn	-7206
▁regul	-7207
▁Johnny	-7208
▁covers	-7209
▁alarm	-7210
▁participate	-7211
ifest	-7212
▁Indians	-7213
uan	-7214
▁Rose	-7215
▁Teac	-7216
▁prev	-7217
▁scene	-7218
▁launch	-7219
▁sunlight	-7220
▁mode	-7221
▁sticks	-7222
▁Zealand	-7223
aken	-7224
▁Access	-7225
▁craw	-7226
▁infant	-7227
▁babies	-7228
▁grace	-7229
▁mineral	-7230
ifications	-7231
rag	-7232
exam	-7233
▁demonstrated	-7234
▁mand	-7235
ubbles	-7236
▁Author	-7237
▁player	-7238
▁employed	-7239
▁politics	-7240
▁Ur	-7241
▁rude	-7242
▁ratio	-7243
▁recognition	-7244
▁independence	-7245
▁enthus	-7246
▁husband	-7247
▁contained	-7248
▁permission	-7249
▁Orig	-7250
▁compounds	-7251
▁Open	-7252
▁Penn	-7253
▁Ocean	-7254
▁wolf	-7255
ferent	-7256
▁queen	-7257
▁obesity	-7258
▁legislation	-7259
ding	-7260
▁reef	-7261
CS	-7262
▁soap	-7263
▁kingdom	-7264
▁AI	-7265
▁Mel	-7266
▁2015	-7267
▁fever	-7268
▁observe	-7269
▁wine	-7270
▁estimate	-7271
▁estimates	-7272
▁OK	-7273
▁wake	-7274
▁Georg	-7275
▁diagnosed	-7276
▁functional	-7277
▁pilot	-7278
▁prohib	-7279
▁smoking	-7280
▁Vit	-7281
▁ethnic	-7282
oir	-7283
inson	-7284
rd	-7285
▁cord	-7286
▁copper	-7287
▁electro	-7288
▁contamin	-7289
▁generous	-7290
▁tent	-7291
▁score	-7292
▁Comput	-7293
▁Similar	-7294
▁uniform	-7295
abul	-7296
peror	-7297
▁Sund	-7298
▁propos	-7299
▁pregnant	-7300
▁attractive	-7301
inn	-7302
▁physics	-7303
▁disappeared	-7304
crif	-7305
pread	-7306
▁2006	-7307
▁Family	-7308
▁sacrif	-7309
▁pleased	-7310
▁election	-7311
▁pretended	-7312
▁behaviors	-7313
inity	-7314
▁cash	-7315
▁Atlantic	-7316
▁sections	-7317
Al	-7318
▁Mean	-7319
▁fault	-7320
▁arrest	-7321
▁declared	-7322
▁beans	-7323
▁Columbia	-7324
▁relation	-7325
▁Everywhere	-7326
▁butt	-7327
▁damaged	-7328
8)	-7329
▁District	-7330
▁Furthermore	-7331
tic	-7332
▁Researchers	-7333
rid	-7334
pill	-7335
icking	-7336
▁feedback	-7337
œI	-7338
▁AS	-7339
▁rivers	-7340
▁improvement	-7341
▁insulin	-7342
▁historic	-7343
▁mountains	-7344
▁embarrassed	-7345
▁psychological	-7346
ibl	-7347
▁Star	-7348
rovers	-7349
▁meters	-7350
▁dancing	-7351
▁voltage	-7352
▁Revolution	-7353
▁conclusion	-7354
▁demonstrate	-7355
▁mac	-7356
ixture	-7357
▁connections	-7358
▁36	-7359
▁Type	-7360
▁Wall	-7361
▁crew	-7362
▁brand	-7363
inks	-7364
▁settings	-7365
▁scat	-7366
▁oblig	-7367
▁instruct	-7368
but	-7369
▁brill	-7370
▁maps	-7371
▁Charl	-7372
▁Guide	-7373
▁Islam	-7374
▁distant	-7375
▁Services	-7376
oids	-7377
▁neur	-7378
▁Article	-7379
▁Ec	-7380
▁doi	-7381
▁hid	-7382
▁knocked	-7383
idespread	-7384
▁mechanisms	-7385
▁Kim	-7386
▁preval	-7387
▁invited	-7388
owed	-7389
▁frustrated	-7390
etts	-7391
riers	-7392
BS	-7393
▁generations	-7394
rem	-7395
▁Teddy	-7396
▁adoles	-7397
▁serving	-7398
▁committed	-7399
▁(4	-7400
▁fancy	-7401
OC	-7402
OL	-7403
▁publication	-7404
▁tie	-7405
night	-7406
▁scan	-7407
▁signed	-7408
▁frequent	-7409
oval	-7410
▁Santa	-7411
▁trials	-7412
▁ille	-7413
▁enemy	-7414
▁Change	-7415
▁settled	-7416
word	-7417
aming	-7418
▁Main	-7419
▁bloom	-7420
▁rhyth	-7421
▁exercises	-7422
itar	-7423
▁lean	-7424
▁minerals	-7425
yal	-7426
▁drought	-7427
▁operate	-7428
▁1:	-7429
aded	-7430
▁Four	-7431
that	-7432
▁balls	-7433
▁remark	-7434
▁glucose	-7435
▁molecules	-7436
▁desk	-7437
itudes	-7438
▁chased	-7439
▁Saf	-7440
▁panel	-7441
▁define	-7442
▁examined	-7443
▁sizes	-7444
▁passage	-7445
▁competitive	-7446
asty	-7447
▁ment	-7448
▁coastal	-7449
etics	-7450
▁bull	-7451
▁boost	-7452
▁Victor	-7453
▁kitten	-7454
9)	-7455
ften	-7456
scale	-7457
▁dreams	-7458
▁explored	-7459
pired	-7460
▁plenty	-7461
▁regist	-7462
IL	-7463
umpy	-7464
idity	-7465
rooms	-7466
▁manip	-7467
ppy	-7468
▁Eastern	-7469
▁designs	-7470
▁criminal	-7471
▁pointing	-7472
▁Mo	-7473
▁sac	-7474
▁Scot	-7475
▁holiday	-7476
▁tissues	-7477
▁Ol	-7478
appy	-7479
▁cher	-7480
▁ongoing	-7481
▁thy	-7482
▁sole	-7483
asters	-7484
▁Without	-7485
▁arrange	-7486
▁capture	-7487
▁pizza	-7488
▁1/	-7489
abled	-7490
▁biod	-7491
▁expansion	-7492
▁tap	-7493
avery	-7494
eless	-7495
imens	-7496
▁ugly	-7497
icon	-7498
rite	-7499
▁molecular	-7500
aste	-7501
▁photos	-7502
icit	-7503
▁Bus	-7504
▁bears	-7505
▁thread	-7506
▁whistle	-7507
▁visitors	-7508
plant	-7509
▁Down	-7510
▁entry	-7511
▁fool	-7512
▁hears	-7513
▁walks	-7514
▁calories	-7515
va	-7516
▁Mummy	-7517
▁coins	-7518
▁approved	-7519
▁reactions	-7520
▁destruction	-7521
otes	-7522
▁Iran	-7523
▁somewhat	-7524
▁positions	-7525
▁celebrated	-7526
rary	-7527
▁jog	-7528
▁seconds	-7529
▁investigate	-7530
▁ye	-7531
▁recept	-7532
▁Special	-7533
▁composed	-7534
such	-7535
▁shield	-7536
▁package	-7537
▁partner	-7538
▁Language	-7539
▁pounds	-7540
▁searching	-7541
weight	-7542
▁texts	-7543
▁maintaining	-7544
▁MD	-7545
▁thorough	-7546
ohyd	-7547
flies	-7548
stone	-7549
▁Never	-7550
▁Adv	-7551
▁bes	-7552
▁stre	-7553
▁Muslim	-7554
▁measuring	-7555
▁evaluation	-7556
▁ol	-7557
▁vs	-7558
▁victims	-7559
▁meth	-7560
▁pale	-7561
▁Plant	-7562
▁industries	-7563
▁constructed	-7564
▁Additionally	-7565
▁disappointed	-7566
▁viruses	-7567
iov	-7568
▁beings	-7569
▁greenhouse	-7570
▁artificial	-7571
hav	-7572
▁Key	-7573
▁gram	-7574
▁usual	-7575
itivity	-7576
▁artists	-7577
andon	-7578
▁shif	-7579
igned	-7580
▁Fund	-7581
▁Prin	-7582
berries	-7583
▁depart	-7584
▁disaster	-7585
mm	-7586
▁1980	-7587
▁buried	-7588
▁claimed	-7589
▁programming	-7590
▁2005	-7591
▁lymph	-7592
▁continuous	-7593
gov	-7594
▁Table	-7595
▁spicy	-7596
▁fourth	-7597
▁interactions	-7598
▁participation	-7599
stract	-7600
▁beliefs	-7601
▁Set	-7602
▁printed	-7603
▁widespread	-7604
▁Dif	-7605
making	-7606
▁seeking	-7607
▁EU	-7608
hent	-7609
▁item	-7610
Please	-7611
▁undert	-7612
▁theories	-7613
▁brilliant	-7614
Tom	-7615
▁Low	-7616
hesis	-7617
▁crime	-7618
▁fought	-7619
▁markets	-7620
▁powder	-7621
▁rarely	-7622
▁courage	-7623
▁Director	-7624
▁wealthy	-7625
▁involving	-7626
yles	-7627
▁tong	-7628
▁hydro	-7629
▁integrated	-7630
▁tied	-7631
▁Korea	-7632
▁knife	-7633
▁route	-7634
▁troub	-7635
ano	-7636
rell	-7637
▁sought	-7638
▁fiber	-7639
▁Try	-7640
edy	-7641
▁beet	-7642
▁rely	-7643
oln	-7644
▁Pot	-7645
▁organs	-7646
▁slavery	-7647
▁feathers	-7648
▁launched	-7649
▁ton	-7650
▁plus	-7651
▁sport	-7652
▁sword	-7653
▁receiving	-7654
▁challenging	-7655
OU	-7656
▁puddle	-7657
▁scream	-7658
▁objective	-7659
▁significance	-7660
▁neckl	-7661
▁Several	-7662
heme	-7663
▁2017	-7664
▁attach	-7665
▁reject	-7666
▁association	-7667
aska	-7668
▁announced	-7669
▁presentation	-7670
▁Asian	-7671
▁bio	-7672
▁roads	-7673
▁wound	-7674
▁Method	-7675
forcement	-7676
▁Er	-7677
▁merely	-7678
▁outbre	-7679
▁Father	-7680
▁impressive	-7681
▁AL	-7682
▁sav	-7683
▁Cast	-7684
▁column	-7685
▁wisdom	-7686
▁facility	-7687
▁Scientists	-7688
cod	-7689
▁faced	-7690
▁newspaper	-7691
▁Sat	-7692
▁sle	-7693
▁fulf	-7694
▁strict	-7695
▁persistent	-7696
azz	-7697
▁evil	-7698
▁steam	-7699
▁defense	-7700
▁Carolina	-7701
▁moisture	-7702
ubble	-7703
▁crack	-7704
▁planets	-7705
▁strongly	-7706
▁categories	-7707
▁seal	-7708
▁Edward	-7709
▁meadow	-7710
▁consumer	-7711
▁150	-7712
rates	-7713
▁debt	-7714
▁Light	-7715
▁terror	-7716
▁conversation	-7717
34	-7718
▁Moon	-7719
▁barked	-7720
▁Resources	-7721
▁Est	-7722
▁Organization	-7723
▁Maria	-7724
▁messages	-7725
▁resident	-7726
irds	-7727
▁insert	-7728
▁installed	-7729
TM	-7730
▁bored	-7731
▁recommendations	-7732
▁Less	-7733
▁division	-7734
-18	-7735
▁Dar	-7736
herent	-7737
▁Quest	-7738
▁phosph	-7739
▁proportion	-7740
▁writers	-7741
55	-7742
▁weapons	-7743
▁Facebook	-7744
▁Ver	-7745
▁assume	-7746
▁granted	-7747
▁category	-7748
▁caterpill	-7749
▁perfectly	-7750
lar	-7751
▁Holy	-7752
▁jack	-7753
▁officer	-7754
▁marks	-7755
▁guidance	-7756
▁accessible	-7757
▁rod	-7758
▁Being	-7759
sis	-7760
oston	-7761
▁reci	-7762
See	-7763
leton	-7764
▁1970	-7765
39	-7766
AA	-7767
▁AP	-7768
▁facing	-7769
▁bedroom	-7770
▁physician	-7771
▁du	-7772
▁Wal	-7773
▁rig	-7774
▁defect	-7775
▁diamond	-7776
▁earthquake	-7777
▁400	-7778
orous	-7779
▁aims	-7780
▁Young	-7781
▁Year	-7782
▁worksh	-7783
▁Consider	-7784
▁controvers	-7785
▁Baby	-7786
▁tidy	-7787
▁weigh	-7788
▁splash	-7789
▁Leo	-7790
print	-7791
▁galax	-7792
▁jelly	-7793
▁heating	-7794
▁opposed	-7795
sm	-7796
▁Dou	-7797
▁fer	-7798
throp	-7799
▁Coll	-7800
▁2014	-7801
▁bitter	-7802
▁suffered	-7803
▁proved	-7804
▁breeding	-7805
▁whis	-7806
▁nurse	-7807
▁theme	-7808
37	-7809
▁Far	-7810
osion	-7811
ortion	-7812
abulary	-7813
▁thankful	-7814
'.	-7815
▁Sir	-7816
▁artist	-7817
▁writes	-7818
▁beat	-7819
▁Super	-7820
▁archae	-7821
eg	-7822
And	-7823
coming	-7824
▁Agency	-7825
▁centers	-7826
▁sandwich	-7827
▁playground	-7828
▁substances	-7829
▁Sil	-7830
▁biology	-7831
▁Tre	-7832
▁reaching	-7833
▁contemporary	-7834
▁Secret	-7835
▁indicated	-7836
▁Oxford	-7837
▁respir	-7838
▁perm	-7839
▁honor	-7840
▁membr	-7841
▁IV	-7842
▁attempts	-7843
▁disag	-7844
▁lemon	-7845
▁elected	-7846
▁constantly	-7847
▁bare	-7848
▁Produ	-7849
▁Queen	-7850
▁informed	-7851
rine	-7852
▁180	-7853
▁vel	-7854
▁breaks	-7855
▁Network	-7856
▁equally	-7857
▁distributed	-7858
iox	-7859
▁Which	-7860
▁stead	-7861
▁considerable	-7862
igan	-7863
ilty	-7864
orph	-7865
▁Did	-7866
▁reverse	-7867
----	-7868
▁Perhaps	-7869
▁abandon	-7870
▁dependent	-7871
▁principal	-7872
▁delivered	-7873
▁communications	-7874
-10	-7875
awn	-7876
▁argued	-7877
▁engaged	-7878
Ar	-7879
▁MS	-7880
▁Hind	-7881
▁trend	-7882
▁belonged	-7883
▁complicated	-7884
▁Inf	-7885
▁evaluate	-7886
▁hang	-7887
▁inher	-7888
▁agents	-7889
▁confident	-7890
oples	-7891
▁messy	-7892
aud	-7893
lym	-7894
▁fo	-7895
roat	-7896
▁Hill	-7897
▁entr	-7898
▁advert	-7899
▁officers	-7900
▁IC	-7901
▁glue	-7902
▁embry	-7903
▁Windows	-7904
▁compassion	-7905
heric	-7906
ierce	-7907
ocation	-7908
▁myself	-7909
▁intense	-7910
last	-7911
▁202	-7912
▁boring	-7913
▁compare	-7914
▁interpre	-7915
▁department	-7916
▁Ref	-7917
▁Coast	-7918
▁gigg	-7919
▁tear	-7920
▁pharm	-7921
▁captured	-7922
▁healing	-7923
▁kilomet	-7924
▁outcome	-7925
▁gradually	-7926
ani	-7927
▁conqu	-7928
▁fairly	-7929
▁fright	-7930
▁cleaned	-7931
▁females	-7932
▁surprising	-7933
vin	-7934
▁Indust	-7935
▁fellow	-7936
▁reveal	-7937
▁surfaces	-7938
▁influenced	-7939
esis	-7940
▁Help	-7941
▁harsh	-7942
▁sparkly	-7943
▁cav	-7944
▁(198	-7945
▁boats	-7946
▁roughly	-7947
ulpt	-7948
▁Page	-7949
ealous	-7950
▁tunnel	-7951
▁Minister	-7952
▁structural	-7953
▁collaboration	-7954
vard	-7955
ishop	-7956
▁cage	-7957
▁sailed	-7958
▁traditions	-7959
IG	-7960
isco	-7961
▁Amaz	-7962
▁fake	-7963
▁pipe	-7964
▁assigned	-7965
aka	-7966
airy	-7967
▁proceed	-7968
tra	-7969
▁session	-7970
▁implications	-7971
ker	-7972
▁rect	-7973
▁measurements	-7974
omer	-7975
haust	-7976
itarian	-7977
▁mining	-7978
▁phenomenon	-7979
▁31	-7980
▁Play	-7981
parent	-7982
▁Media	-7983
▁cod	-7984
▁combat	-7985
▁separated	-7986
▁rubb	-7987
▁errors	-7988
▁rib	-7989
incoln	-7990
lishing	-7991
▁Johnson	-7992
iah	-7993
▁arts	-7994
▁herb	-7995
▁orbit	-7996
▁theore	-7997
▁dealing	-7998
▁Remember	-7999
▁maintained	-8000
she	-8001
worth	-8002
▁stops	-8003
▁reaches	-8004
▁laz	-8005
▁clothing	-8006
▁crab	-8007
health	-8008
▁planted	-8009
▁essentially	-8010
ometer	-8011
▁opens	-8012
▁Source	-8013
▁immigr	-8014
▁confirmed	-8015
▁32	-8016
▁Kar	-8017
▁jur	-8018
▁wip	-8019
ushes	-8020
▁Dutch	-8021
▁dischar	-8022
▁compound	-8023
▁banks	-8024
▁teams	-8025
▁union	-8026
▁Sunday	-8027
▁controls	-8028
▁somewhere	-8029
▁translation	-8030
▁Swed	-8031
▁owned	-8032
including	-8033
▁nitrogen	-8034
▁Christians	-8035
▁dil	-8036
▁targets	-8037
▁dolph	-8038
▁hopes	-8039
▁offering	-8040
▁intellectual	-8041
▁gut	-8042
▁mit	-8043
▁Liter	-8044
▁Reading	-8045
▁radical	-8046
▁imagination	-8047
Where	-8048
▁vine	-8049
▁squee	-8050
▁satellite	-8051
▁Nov	-8052
American	-8053
▁reduces	-8054
▁shelter	-8055
▁necklace	-8056
▁virtual	-8057
▁renewable	-8058
▁implemented	-8059
▁Mult	-8060
▁lawn	-8061
▁paras	-8062
▁adequate	-8063
▁bathroom	-8064
▁;	-8065
hyd	-8066
rous	-8067
medi	-8068
▁Naz	-8069
▁shade	-8070
▁surre	-8071
▁examination	-8072
asant	-8073
▁boss	-8074
▁peak	-8075
▁demands	-8076
▁metabol	-8077
▁intelligent	-8078
▁py	-8079
▁restore	-8080
▁terrible	-8081
bes	-8082
bur	-8083
rene	-8084
▁sleepy	-8085
▁threats	-8086
▁scientist	-8087
▁preventing	-8088
RA	-8089
mers	-8090
▁adds	-8091
▁irrit	-8092
▁pestic	-8093
▁proven	-8094
▁farming	-8095
▁(20	-8096
▁cries	-8097
▁dates	-8098
▁trucks	-8099
▁desired	-8100
▁effectiveness	-8101
izzy	-8102
etary	-8103
ardens	-8104
▁subsequent	-8105
iana	-8106
noon	-8107
▁Iss	-8108
obile	-8109
cyclopedia	-8110
▁conven	-8111
▁shells	-8112
▁statements	-8113
▁chew	-8114
▁protecting	-8115
apse	-8116
▁Section	-8117
▁Conservation	-8118
▁Mos	-8119
▁interpretation	-8120
IA	-8121
▁Heb	-8122
ritis	-8123
▁Prop	-8124
▁jewel	-8125
▁slaves	-8126
▁edition	-8127
44	-8128
▁stimul	-8129
ima	-8130
eath	-8131
acles	-8132
LA	-8133
anas	-8134
▁stores	-8135
▁athlet	-8136
▁strike	-8137
iner	-8138
kers	-8139
▁Lead	-8140
▁spots	-8141
▁abnormal	-8142
▁superior	-8143
greg	-8144
▁Cross	-8145
tles	-8146
▁mold	-8147
▁Again	-8148
▁cable	-8149
▁proof	-8150
▁experimental	-8151
cons	-8152
▁neu	-8153
achus	-8154
▁Corn	-8155
▁Word	-8156
▁Music	-8157
▁cattle	-8158
▁attitude	-8159
▁concluded	-8160
▁fatty	-8161
fection	-8162
▁guilty	-8163
▁inspir	-8164
▁Os	-8165
▁ov	-8166
▁blind	-8167
▁Online	-8168
▁videos	-8169
▁inspired	-8170
▁preparation	-8171
▁Bul	-8172
▁sorts	-8173
▁Boston	-8174
▁criteria	-8175
IM	-8176
▁Modern	-8177
ventions	-8178
▁Whether	-8179
▁mathematics	-8180
▁respectively	-8181
▁Administration	-8182
▁Ident	-8183
▁patch	-8184
▁Treatment	-8185
▁tumor	-8186
▁withd	-8187
example	-8188
%)	-8189
▁9.	-8190
▁1960	-8191
▁Lincoln	-8192
▁ashamed	-8193
Me	-8194
▁concerning	-8195
▁difficulties	-8196
ogs	-8197
umer	-8198
▁Community	-8199
bar	-8200
outs	-8201
▁unl	-8202
▁roles	-8203
▁uncertain	-8204
Now	-8205
iva	-8206
inder	-8207
agraph	-8208
▁Polit	-8209
▁acres	-8210
▁burned	-8211
▁measurement	-8212
▁produc	-8213
▁introduce	-8214
▁varieties	-8215
rape	-8216
▁AND	-8217
▁Forest	-8218
▁magnet	-8219
▁stretch	-8220
76	-8221
ady	-8222
▁Han	-8223
▁rooms	-8224
istical	-8225
▁enjoying	-8226
▁manifest	-8227
▁settlement	-8228
▁regulation	-8229
IP	-8230
igue	-8231
▁Wil	-8232
ommod	-8233
▁audio	-8234
▁males	-8235
▁saving	-8236
aid	-8237
agon	-8238
heimer	-8239
uality	-8240
▁acute	-8241
▁Centre	-8242
▁epis	-8243
▁lens	-8244
rolled	-8245
▁fires	-8246
▁slave	-8247
▁trigger	-8248
▁accuracy	-8249
▁earliest	-8250
▁Mah	-8251
▁garage	-8252
▁printing	-8253
abil	-8254
▁Fire	-8255
▁angle	-8256
▁tract	-8257
▁mixture	-8258
▁dinosaur	-8259
▁province	-8260
▁outer	-8261
▁modified	-8262
▁overcome	-8263
IR	-8264
ograp	-8265
▁Avoid	-8266
▁trunk	-8267
▁democracy	-8268
▁advantages	-8269
▁grows	-8270
▁conference	-8271
▁yelled	-8272
▁variables	-8273
fit	-8274
▁jealous	-8275
uels	-8276
▁drops	-8277
▁counted	-8278
▁spectrum	-8279
▁favourite	-8280
▁breed	-8281
▁polar	-8282
theless	-8283
▁Thanks	-8284
▁config	-8285
▁complications	-8286
OM	-8287
Ph	-8288
rane	-8289
▁bubbles	-8290
▁accompan	-8291
cal	-8292
acco	-8293
asts	-8294
▁cub	-8295
ounter	-8296
▁Books	-8297
▁Force	-8298
▁mummy	-8299
▁Person	-8300
▁investigation	-8301
Are	-8302
:10.	-8303
▁panels	-8304
▁quarter	-8305
▁tropical	-8306
▁2:	-8307
▁jet	-8308
▁keeps	-8309
▁autism	-8310
▁isolated	-8311
▁identification	-8312
ioxid	-8313
▁2003	-8314
unicip	-8315
▁buttons	-8316
TH	-8317
mond	-8318
▁mechanical	-8319
▁DC	-8320
▁license	-8321
▁recover	-8322
▁magazine	-8323
▁excessive	-8324
▁initially	-8325
▁hay	-8326
otton	-8327
▁vase	-8328
▁meals	-8329
▁exceed	-8330
▁polite	-8331
▁focuses	-8332
▁disappear	-8333
32	-8334
▁eru	-8335
ested	-8336
▁thri	-8337
▁Jacob	-8338
▁Right	-8339
▁Having	-8340
▁analys	-8341
▁anxious	-8342
▁Gar	-8343
igate	-8344
▁Card	-8345
▁newly	-8346
▁sales	-8347
▁drinks	-8348
position	-8349
▁carbohyd	-8350
ami	-8351
▁fet	-8352
▁Rock	-8353
▁flows	-8354
▁exhaust	-8355
▁coverage	-8356
▁characterized	-8357
▁mm	-8358
▁Sup	-8359
▁hazard	-8360
▁pleasure	-8361
acle	-8362
▁Fact	-8363
▁overw	-8364
▁trail	-8365
▁considering	-8366
▁pit	-8367
▁clar	-8368
ipedia	-8369
▁twirl	-8370
▁banana	-8371
▁universal	-8372
rav	-8373
arming	-8374
▁Works	-8375
▁yours	-8376
cribe	-8377
▁Heart	-8378
▁ignor	-8379
▁profit	-8380
df	-8381
▁Rex	-8382
▁royal	-8383
▁worst	-8384
▁memories	-8385
▁stations	-8386
▁container	-8387
▁households	-8388
▁substantial	-8389
elve	-8390
ashes	-8391
▁Tweet	-8392
▁intest	-8393
▁serves	-8394
▁heavily	-8395
▁Prevention	-8396
▁commission	-8397
▁id	-8398
endar	-8399
▁Cell	-8400
olving	-8401
pling	-8402
▁barn	-8403
▁pets	-8404
▁removal	-8405
▁organize	-8406
ette	-8407
▁Hor	-8408
▁dys	-8409
vania	-8410
▁Copy	-8411
issors	-8412
essions	-8413
▁Protection	-8414
gend	-8415
▁heal	-8416
▁sculpt	-8417
▁covering	-8418
▁5,	-8419
▁guitar	-8420
▁musical	-8421
▁wrapped	-8422
▁learners	-8423
▁impressed	-8424
▁innovation	-8425
▁bless	-8426
aration	-8427
▁mistakes	-8428
▁afternoon	-8429
▁prominent	-8430
10.	-8431
adel	-8432
▁ghost	-8433
▁piano	-8434
▁Recent	-8435
rus	-8436
zes	-8437
iary	-8438
onym	-8439
▁View	-8440
▁torn	-8441
achusetts	-8442
▁variation	-8443
48	-8444
-20	-8445
When	-8446
▁2004	-8447
▁doors	-8448
▁mighty	-8449
▁Ven	-8450
▁aged	-8451
▁unex	-8452
▁2009.	-8453
▁cooked	-8454
net	-8455
irms	-8456
oosing	-8457
▁warned	-8458
oric	-8459
amins	-8460
▁occurring	-8461
▁cel	-8462
▁pean	-8463
▁intent	-8464
▁appoint	-8465
▁screening	-8466
▁Arctic	-8467
▁Following	-8468
▁ok	-8469
▁Tob	-8470
anted	-8471
▁statue	-8472
▁perception	-8473
▁contribution	-8474
Sh	-8475
Who	-8476
▁ES	-8477
▁Eliz	-8478
▁pencil	-8479
▁preced	-8480
▁tables	-8481
▁emphasis	-8482
▁directions	-8483
brid	-8484
▁Due	-8485
▁bomb	-8486
▁regarded	-8487
▁fract	-8488
▁knight	-8489
▁Obs	-8490
▁lazy	-8491
▁Georgia	-8492
class	-8493
ipper	-8494
▁rescue	-8495
▁senior	-8496
▁abilities	-8497
irus	-8498
▁rit	-8499
▁directed	-8500
▁kindness	-8501
htt	-8502
▁(5	-8503
▁sup	-8504
▁assert	-8505
▁courts	-8506
▁comprom	-8507
▁uncomfort	-8508
▁cm	-8509
▁array	-8510
Stop	-8511
▁trap	-8512
ercury	-8513
▁Palest	-8514
▁driven	-8515
▁shouldn	-8516
▁Susie	-8517
▁practiced	-8518
ulty	-8519
▁expanded	-8520
itals	-8521
▁Ohio	-8522
▁conj	-8523
▁kick	-8524
▁lamp	-8525
▁Solar	-8526
▁conserv	-8527
▁scissors	-8528
▁Cambridge	-8529
▁Hum	-8530
elfare	-8531
▁oldest	-8532
▁picking	-8533
▁Ut	-8534
▁unw	-8535
asures	-8536
ptions	-8537
▁plain	-8538
▁grounds	-8539
▁performing	-8540
▁38	-8541
▁shake	-8542
▁client	-8543
▁formula	-8544
▁detection	-8545
HA	-8546
cia	-8547
door	-8548
▁Ros	-8549
▁aest	-8550
ultane	-8551
▁Indeed	-8552
▁closet	-8553
▁counting	-8554
IDS	-8555
rin	-8556
html	-8557
just	-8558
uber	-8559
keeper	-8560
▁editor	-8561
▁)	-8562
▁rh	-8563
▁alph	-8564
▁Safety	-8565
▁narrative	-8566
▁Christianity	-8567
ruption	-8568
▁recall	-8569
▁authent	-8570
▁evolved	-8571
▁realised	-8572
UN	-8573
from	-8574
jection	-8575
▁delicate	-8576
▁contributed	-8577
%.	-8578
▁Los	-8579
achel	-8580
reated	-8581
▁Field	-8582
thritis	-8583
▁ruined	-8584
▁Hun	-8585
abeth	-8586
▁intensity	-8587
',	-8588
dis	-8589
▁farms	-8590
▁Spring	-8591
▁tongue	-8592
▁accommod	-8593
▁interface	-8594
▁probability	-8595
▁Massachusetts	-8596
▁streets	-8597
▁eliminate	-8598
.'	-8599
sell	-8600
▁hed	-8601
▁plot	-8602
angered	-8603
▁Battle	-8604
▁lifted	-8605
▁Islamic	-8606
▁dietary	-8607
▁Call	-8608
umbled	-8609
▁grain	-8610
▁loose	-8611
▁fragile	-8612
▁Analysis	-8613
▁Ba	-8614
▁channel	-8615
▁automatically	-8616
Ex	-8617
orted	-8618
▁Circ	-8619
▁Policy	-8620
▁Unlike	-8621
▁washed	-8622
▁berries	-8623
roductive	-8624
▁exception	-8625
▁threatened	-8626
▁consideration	-8627
▁hol	-8628
▁victim	-8629
▁absence	-8630
▁disrupt	-8631
alm	-8632
elp	-8633
▁odd	-8634
pered	-8635
flu	-8636
▁1950	-8637
▁eaten	-8638
▁losses	-8639
mble	-8640
agram	-8641
▁toil	-8642
▁Economic	-8643
Un	-8644
▁bark	-8645
▁Small	-8646
▁alter	-8647
▁uncomfortable	-8648
▁Leg	-8649
▁Tri	-8650
erman	-8651
▁Adam	-8652
▁consume	-8653
▁Convention	-8654
Cl	-8655
oul	-8656
▁Ly	-8657
aren	-8658
▁towns	-8659
▁Vietnam	-8660
▁illegal	-8661
▁diameter	-8662
iti	-8663
▁minds	-8664
▁mystery	-8665
▁suscept	-8666
iovascular	-8667
▁decreased	-8668
▁exploration	-8669
mod	-8670
▁tip	-8671
▁Give	-8672
forest	-8673
▁Vitamin	-8674
Ben	-8675
▁Dave	-8676
▁rubber	-8677
65	-8678
ults	-8679
▁exped	-8680
▁provider	-8681
▁regardless	-8682
archy	-8683
▁agent	-8684
▁brows	-8685
▁hence	-8686
criptions	-8687
▁overwhel	-8688
▁Alexander	-8689
▁surrounded	-8690
▁observation	-8691
ura	-8692
rency	-8693
▁bicy	-8694
▁Hebrew	-8695
syl	-8696
▁envelop	-8697
▁neighbour	-8698
▁caterpillar	-8699
uccess	-8700
▁Major	-8701
▁aimed	-8702
▁towel	-8703
▁losing	-8704
▁factory	-8705
▁Parliament	-8706
▁representation	-8707
▁Dev	-8708
▁Hand	-8709
▁Mike	-8710
▁mortality	-8711
▁collecting	-8712
▁Pur	-8713
▁embra	-8714
▁Business	-8715
77	-8716
amps	-8717
pending	-8718
▁ignored	-8719
▁objectives	-8720
atial	-8721
enger	-8722
▁Kitty	-8723
▁picks	-8724
▁shaped	-8725
▁lecture	-8726
▁bin	-8727
▁Incre	-8728
▁Alz	-8729
▁Point	-8730
▁prize	-8731
▁Contin	-8732
▁orders	-8733
▁raising	-8734
des	-8735
▁AM	-8736
▁joke	-8737
▁addressed	-8738
▁vocabulary	-8739
ieval	-8740
▁nods	-8741
▁shark	-8742
▁charged	-8743
▁commitment	-8744
ifer	-8745
▁Pap	-8746
▁dism	-8747
▁Still	-8748
▁lungs	-8749
▁Invest	-8750
▁hopping	-8751
▁schedule	-8752
▁underground	-8753
amics	-8754
eness	-8755
▁Pete	-8756
▁dose	-8757
▁Francisco	-8758
▁sink	-8759
▁hardware	-8760
▁wage	-8761
HD	-8762
zz	-8763
VID	-8764
▁1,000	-8765
▁Building	-8766
▁breaking	-8767
▁BM	-8768
soft	-8769
plete	-8770
▁Snow	-8771
▁plates	-8772
▁wooden	-8773
▁Egyptian	-8774
▁Michigan	-8775
▁initiative	-8776
▁Es	-8777
lims	-8778
text	-8779
▁Gulf	-8780
▁pour	-8781
ilation	-8782
▁forming	-8783
▁literary	-8784
iat	-8785
▁victory	-8786
/0	-8787
▁Ve	-8788
▁cooling	-8789
▁insight	-8790
▁indigenous	-8791
For	-8792
bul	-8793
case	-8794
▁Ari	-8795
▁checked	-8796
▁constra	-8797
▁Ha	-8798
▁Head	-8799
▁biom	-8800
▁reminded	-8801
▁appointed	-8802
▁inhabit	-8803
▁Hospital	-8804
▁planting	-8805
▁executive	-8806
acent	-8807
▁spoken	-8808
▁enables	-8809
▁believes	-8810
▁treating	-8811
▁providers	-8812
▁opposition	-8813
keys	-8814
icate	-8815
nding	-8816
▁resid	-8817
▁experiencing	-8818
▁viewed	-8819
▁chamber	-8820
▁auton	-8821
▁engineers	-8822
▁characteristic	-8823
▁umb	-8824
▁spell	-8825
▁beneath	-8826
▁Whenever	-8827
▁supplements	-8828
real	-8829
▁Parent	-8830
▁heaven	-8831
▁furniture	-8832
▁antibiotics	-8833
▁Portug	-8834
▁fierce	-8835
▁golden	-8836
▁explicit	-8837
▁Alzheimer	-8838
▁Lu	-8839
amine	-8840
atively	-8841
▁refrig	-8842
▁shadow	-8843
▁mothers	-8844
▁cann	-8845
usalem	-8846
rection	-8847
▁sighed	-8848
sylvania	-8849
▁affecting	-8850
▁correctly	-8851
raq	-8852
▁Capt	-8853
▁noisy	-8854
▁scarf	-8855
▁rational	-8856
PC	-8857
ENT	-8858
▁Way	-8859
▁tiger	-8860
▁elsewhere	-8861
▁functioning	-8862
▁34	-8863
adder	-8864
asses	-8865
▁chlor	-8866
▁updated	-8867
▁football	-8868
▁shoulder	-8869
▁manufacturers	-8870
ela	-8871
lete	-8872
▁decay	-8873
▁tribes	-8874
▁processed	-8875
▁stability	-8876
ba	-8877
▁peoples	-8878
▁literacy	-8879
aph	-8880
aya	-8881
asma	-8882
▁Oper	-8883
▁conce	-8884
▁telephone	-8885
▁marg	-8886
▁drank	-8887
▁vegetable	-8888
▁Bal	-8889
▁chap	-8890
▁pole	-8891
▁weird	-8892
▁provin	-8893
▁trends	-8894
▁selling	-8895
▁antioxid	-8896
Gen	-8897
▁Kat	-8898
▁Stan	-8899
▁draft	-8900
iological	-8901
▁drawings	-8902
▁reporting	-8903
▁Rest	-8904
▁acting	-8905
▁thereby	-8906
TE	-8907
▁Ep	-8908
eling	-8909
▁Based	-8910
▁adolesc	-8911
▁mosquito	-8912
▁visiting	-8913
▁weakness	-8914
▁Kn	-8915
quir	-8916
▁parad	-8917
▁locked	-8918
▁scheme	-8919
▁societies	-8920
TP	-8921
eor	-8922
▁Wed	-8923
▁lou	-8924
▁mes	-8925
▁anger	-8926
▁identifying	-8927
DS	-8928
otal	-8929
▁(1)	-8930
istant	-8931
▁degrad	-8932
▁programme	-8933
▁Put	-8934
itory	-8935
trans	-8936
▁Carl	-8937
▁Drug	-8938
▁dried	-8939
▁biodiversity	-8940
ritional	-8941
▁counsel	-8942
▁moderate	-8943
▁interactive	-8944
▁Nob	-8945
▁grumpy	-8946
▁bleeding	-8947
▁colourful	-8948
thon	-8949
▁les	-8950
▁1930	-8951
ogenic	-8952
▁taxes	-8953
▁phrase	-8954
▁Symptoms	-8955
▁Bu	-8956
▁gases	-8957
▁correl	-8958
▁prayer	-8959
▁destination	-8960
▁glac	-8961
▁wider	-8962
▁butterflies	-8963
▁2002	-8964
effect	-8965
ountain	-8966
▁handed	-8967
▁colours	-8968
95	-8969
▁Ak	-8970
▁Math	-8971
omatic	-8972
orable	-8973
▁existed	-8974
▁friendship	-8975
▁researcher	-8976
▁rug	-8977
century	-8978
▁smelly	-8979
▁airport	-8980
▁educators	-8981
ansas	-8982
rapeut	-8983
▁ampl	-8984
▁cows	-8985
▁duty	-8986
▁dynamic	-8987
▁pushing	-8988
New	-8989
▁65	-8990
▁2012.	-8991
je	-8992
▁IT	-8993
green	-8994
▁bake	-8995
▁Bobby	-8996
▁angel	-8997
▁clown	-8998
▁Engineering	-8999
▁Gre	-9000
ostic	-9001
▁Supreme	-9002
▁symbols	-9003
▁disabilities	-9004
Well	-9005
▁pine	-9006
▁towers	-9007
66	-9008
▁oct	-9009
eping	-9010
▁skull	-9011
▁barrel	-9012
▁imaging	-9013
▁dramatic	-9014
▁TO	-9015
▁bent	-9016
▁kissed	-9017
▁temporary	-9018
▁appreciate	-9019
▁deficiency	-9020
31	-9021
gener	-9022
itches	-9023
▁turtle	-9024
▁detected	-9025
▁paintings	-9026
urous	-9027
▁dishes	-9028
▁paragraph	-9029
▁improvements	-9030
▁establishment	-9031
▁arrow	-9032
▁behave	-9033
▁emerging	-9034
▁versions	-9035
▁Pennsylvania	-9036
▁Amazon	-9037
▁modest	-9038
▁humanity	-9039
▁respiratory	-9040
agen	-9041
▁pla	-9042
▁1920	-9043
vation	-9044
▁lists	-9045
▁chromos	-9046
thy	-9047
aters	-9048
▁mask	-9049
iments	-9050
▁Often	-9051
▁soldier	-9052
▁Scotland	-9053
ographical	-9054
gence	-9055
▁grid	-9056
▁haven	-9057
▁returns	-9058
▁districts	-9059
▁Conference	-9060
▁37	-9061
▁Turn	-9062
▁indu	-9063
adelph	-9064
icular	-9065
fa	-9066
ustain	-9067
▁habitats	-9068
▁thirst	-9069
▁hormone	-9070
mann	-9071
pled	-9072
ailable	-9073
▁Albert	-9074
▁Jerusalem	-9075
▁ease	-9076
▁Within	-9077
▁fatigue	-9078
▁substit	-9079
▁goat	-9080
▁urine	-9081
▁fridge	-9082
otherapy	-9083
▁lifetime	-9084
▁preserve	-9085
▁concentrations	-9086
▁acquired	-9087
▁simultane	-9088
?".	-9089
ontal	-9090
▁loop	-9091
▁Impro	-9092
▁wagon	-9093
▁cancers	-9094
ta	-9095
quar	-9096
▁Mot	-9097
▁Crit	-9098
▁ants	-9099
▁worker	-9100
▁Digital	-9101
▁anticip	-9102
▁spinning	-9103
▁gear	-9104
▁advis	-9105
▁juicy	-9106
▁repeat	-9107
▁interior	-9108
▁restoration	-9109
isd	-9110
▁3-	-9111
▁6,	-9112
CD	-9113
HS	-9114
▁Poly	-9115
▁glow	-9116
▁surge	-9117
utation	-9118
▁strain	-9119
▁Division	-9120
▁Ministry	-9121
mal	-9122
▁vap	-9123
ometry	-9124
▁begun	-9125
▁skipped	-9126
auc	-9127
▁48	-9128
pack	-9129
▁Squ	-9130
▁cure	-9131
▁dough	-9132
▁colony	-9133
▁racial	-9134
▁entering	-9135
tw	-9136
/201	-9137
bell	-9138
▁buying	-9139
▁fluffy	-9140
▁wagged	-9141
▁adapted	-9142
▁Ask	-9143
iability	-9144
▁Elizabeth	-9145
▁innovative	-9146
▁compos	-9147
▁mathematical	-9148
rh	-9149
aret	-9150
ruit	-9151
▁customer	-9152
PR	-9153
▁opinions	-9154
▁vertical	-9155
▁boundaries	-9156
▁sensitivity	-9157
.).	-9158
wan	-9159
▁bald	-9160
▁worship	-9161
▁managing	-9162
")	-9163
EA	-9164
▁teens	-9165
▁regime	-9166
▁sevent	-9167
BT	-9168
kel	-9169
ptic	-9170
▁germ	-9171
▁Harry	-9172
▁needle	-9173
▁nutrient	-9174
▁Would	-9175
▁Assess	-9176
▁Senate	-9177
▁availability	-9178
ador	-9179
▁entit	-9180
▁teles	-9181
adelphia	-9182
▁assumed	-9183
▁rolling	-9184
▁perceived	-9185
▁logic	-9186
▁pumpkin	-9187
▁summary	-9188
▁thermal	-9189
flower	-9190
▁struggling	-9191
agle	-9192
▁Peace	-9193
▁chemistry	-9194
har	-9195
▁DO	-9196
otype	-9197
▁Road	-9198
▁disg	-9199
▁grains	-9200
▁orient	-9201
▁giggled	-9202
▁moments	-9203
▁classical	-9204
▁75	-9205
▁Harvard	-9206
▁definitely	-9207
▁protective	-9208
▁Olym	-9209
endment	-9210
▁incident	-9211
▁Nem	-9212
▁hardly	-9213
▁notion	-9214
▁Between	-9215
▁Writing	-9216
▁Sn	-9217
ceans	-9218
▁folk	-9219
▁Offic	-9220
▁cereal	-9221
▁splashed	-9222
▁Agriculture	-9223
new	-9224
▁Rub	-9225
iosity	-9226
▁Survey	-9227
▁wheels	-9228
ati	-9229
▁cone	-9230
▁2010.	-9231
▁headed	-9232
▁scores	-9233
▁imagined	-9234
▁Encyclopedia	-9235
Sorry	-9236
eting	-9237
▁Pass	-9238
▁Trad	-9239
▁hills	-9240
▁stack	-9241
▁Justice	-9242
▁neutral	-9243
▁succeeded	-9244
▁Everything	-9245
top	-9246
▁profile	-9247
▁quantum	-9248
▁Colorado	-9249
▁calendar	-9250
NS	-9251
foot	-9252
▁Log	-9253
▁pione	-9254
▁posts	-9255
▁sauce	-9256
▁slides	-9257
▁Systems	-9258
▁hunting	-9259
▁Physical	-9260
▁disability	-9261
child	-9262
▁curt	-9263
▁labour	-9264
▁8,	-9265
burn	-9266
▁tempor	-9267
▁enthusi	-9268
▁expertise	-9269
gical	-9270
▁lowest	-9271
▁physically	-9272
▁louder	-9273
▁ecological	-9274
▁parameters	-9275
46	-9276
EF	-9277
▁Aff	-9278
▁Iraq	-9279
holders	-9280
▁versus	-9281
▁reasonable	-9282
▁Kids	-9283
▁curve	-9284
▁cyber	-9285
▁apolog	-9286
▁deeply	-9287
▁trains	-9288
▁killing	-9289
▁consumed	-9290
UC	-9291
▁Fil	-9292
▁dull	-9293
▁Muslims	-9294
▁manager	-9295
▁painful	-9296
▁equation	-9297
▁adventurous	-9298
▁33	-9299
▁Given	-9300
▁films	-9301
▁Daniel	-9302
▁promoting	-9303
▁strategic	-9304
mega	-9305
▁Pak	-9306
▁Ella	-9307
ranean	-9308
▁Independ	-9309
▁classified	-9310
▁consciousness	-9311
▁Imp	-9312
▁2018	-9313
▁crystal	-9314
▁hurric	-9315
▁paying	-9316
▁foolish	-9317
▁extension	-9318
▁Antar	-9319
▁gravity	-9320
▁Standard	-9321
▁contributions	-9322
world	-9323
▁Frid	-9324
▁luck	-9325
▁aging	-9326
▁fallen	-9327
▁seriously	-9328
▁restaurant	-9329
▁Direct	-9330
▁Turkey	-9331
QL	-9332
▁Mond	-9333
▁roar	-9334
▁propag	-9335
▁behavioral	-9336
nedy	-9337
▁Wildlife	-9338
EO	-9339
inger	-9340
▁Place	-9341
▁shock	-9342
▁anyway	-9343
▁actively	-9344
▁heritage	-9345
▁continuing	-9346
aven	-9347
▁pee	-9348
sters	-9349
▁Soph	-9350
▁inequ	-9351
▁pillow	-9352
▁focusing	-9353
▁particle	-9354
▁Laboratory	-9355
▁remarkable	-9356
iop	-9357
▁poetry	-9358
▁Copyright	-9359
▁technological	-9360
▁CA	-9361
prise	-9362
▁2001	-9363
▁dense	-9364
▁chances	-9365
▁marketing	-9366
vi	-9367
ema	-9368
engu	-9369
▁Grow	-9370
▁hose	-9371
▁flies	-9372
▁privile	-9373
▁forgotten	-9374
▁hypothesis	-9375
▁requirement	-9376
rophy	-9377
▁2019	-9378
▁anch	-9379
▁stubb	-9380
▁paw	-9381
▁ranging	-9382
▁colonies	-9383
▁Testament	-9384
awa	-9385
▁Jon	-9386
borne	-9387
▁wrap	-9388
struct	-9389
alities	-9390
▁Korean	-9391
▁styles	-9392
▁trauma	-9393
▁Examples	-9394
▁quantity	-9395
▁virtually	-9396
▁psychology	-9397
▁corresponding	-9398
98	-9399
▁Diet	-9400
▁hurts	-9401
▁occas	-9402
▁medicines	-9403
▁gig	-9404
▁Cost	-9405
▁sale	-9406
▁tracks	-9407
play	-9408
▁verb	-9409
▁stairs	-9410
▁traits	-9411
▁balanced	-9412
)|	-9413
▁7,	-9414
▁cups	-9415
▁tone	-9416
onents	-9417
▁Mandy	-9418
▁stake	-9419
▁analyze	-9420
▁washing	-9421
▁engaging	-9422
▁qualities	-9423
▁vegetation	-9424
▁interventions	-9425
friend	-9426
▁Connect	-9427
▁privacy	-9428
▁thoughtful	-9429
▁expectations	-9430
orig	-9431
▁Ott	-9432
lower	-9433
▁Watch	-9434
▁achievement	-9435
▁reign	-9436
▁stamp	-9437
▁ignore	-9438
▁convert	-9439
▁sending	-9440
▁sentences	-9441
▁personality	-9442
],	-9443
asm	-9444
rand	-9445
▁screw	-9446
▁rhythm	-9447
▁struck	-9448
▁valley	-9449
▁vitamins	-9450
▁10,	-9451
▁Van	-9452
▁icy	-9453
▁Farm	-9454
▁Town	-9455
▁Hence	-9456
▁violent	-9457
uten	-9458
ouses	-9459
▁Spir	-9460
▁Jones	-9461
▁divide	-9462
▁filter	-9463
▁Unt	-9464
ooper	-9465
opher	-9466
▁gods	-9467
▁Andrew	-9468
▁throat	-9469
abb	-9470
▁1)	-9471
bial	-9472
▁Gall	-9473
▁hats	-9474
▁evident	-9475
▁arguments	-9476
▁representative	-9477
eem	-9478
▁je	-9479
atus	-9480
▁RNA	-9481
▁tob	-9482
▁trace	-9483
working	-9484
▁linear	-9485
▁reflected	-9486
▁poured	-9487
▁balloons	-9488
▁dominant	-9489
▁harmless	-9490
▁stubborn	-9491
atal	-9492
inte	-9493
iches	-9494
▁Much	-9495
▁Rail	-9496
▁emerged	-9497
▁recycling	-9498
▁golf	-9499
▁leak	-9500
▁badly	-9501
▁computing	-9502
▁ownership	-9503
▁photographs	-9504
Go	-9505
▁Him	-9506
ensed	-9507
▁moms	-9508
▁cotton	-9509
▁crocod	-9510
▁wishes	-9511
▁exhibit	-9512
▁migration	-9513
47	-9514
ovel	-9515
▁marry	-9516
▁analog	-9517
▁Kennedy	-9518
▁forecast	-9519
▁Philadelphia	-9520
aware	-9521
makers	-9522
▁chase	-9523
▁applying	-9524
▁preferred	-9525
ureau	-9526
▁beef	-9527
▁hipp	-9528
▁twig	-9529
▁Relig	-9530
▁adverse	-9531
▁emotion	-9532
▁apparently	-9533
▁variations	-9534
Help	-9535
copy	-9536
▁Die	-9537
▁logical	-9538
▁committee	-9539
▁websites	-9540
cin	-9541
▁ot	-9542
rant	-9543
▁pear	-9544
▁gifts	-9545
▁converted	-9546
fol	-9547
oto	-9548
▁twist	-9549
nut	-9550
▁Ice	-9551
▁Lind	-9552
▁spun	-9553
▁contents	-9554
▁ensuring	-9555
▁integration	-9556
▁developments	-9557
▁SS	-9558
▁Lim	-9559
▁Mid	-9560
▁nom	-9561
▁tab	-9562
▁Move	-9563
▁Biology	-9564
▁accompanied	-9565
bel	-9566
hea	-9567
▁Bang	-9568
▁boot	-9569
▁dizzy	-9570
▁Action	-9571
▁Should	-9572
▁hoping	-9573
▁crossed	-9574
▁elections	-9575
▁oxid	-9576
▁thunder	-9577
▁recording	-9578
▁restrictions	-9579
▁Son	-9580
ospel	-9581
▁Bear	-9582
▁Cond	-9583
▁Near	-9584
▁dispos	-9585
▁mature	-9586
▁sweetie	-9587
asy	-9588
▁engines	-9589
▁suicide	-9590
▁welfare	-9591
▁Interest	-9592
▁displayed	-9593
▁frightened	-9594
corn	-9595
▁120	-9596
▁Gener	-9597
▁hammer	-9598
▁weapon	-9599
▁Century	-9600
▁cardiovascular	-9601
▁MA	-9602
▁Fish	-9603
▁gifted	-9604
▁intention	-9605
-15	-9606
▁Rh	-9607
mend	-9608
urches	-9609
▁passion	-9610
▁cooperation	-9611
▁determining	-9612
▁("	-9613
thew	-9614
ccoli	-9615
flamm	-9616
▁Fair	-9617
▁Trust	-9618
▁loudly	-9619
▁spinal	-9620
▁Islands	-9621
▁gardens	-9622
▁revenue	-9623
▁shorter	-9624
▁copyright	-9625
ira	-9626
▁mg	-9627
▁ech	-9628
illance	-9629
▁landing	-9630
▁differently	-9631
▁sustainability	-9632
perm	-9633
▁Emer	-9634
▁drivers	-9635
▁stretched	-9636
IF	-9637
hell	-9638
▁cul	-9639
▁pace	-9640
▁span	-9641
▁cough	-9642
▁crawled	-9643
▁tobacco	-9644
▁priority	-9645
▁reserved	-9646
▁batteries	-9647
▁Best	-9648
▁Fall	-9649
▁electrons	-9650
▁literally	-9651
▁rays	-9652
▁wars	-9653
▁trash	-9654
▁bushes	-9655
▁riding	-9656
UR	-9657
pow	-9658
▁Sand	-9659
▁unem	-9660
shaped	-9661
▁fuels	-9662
▁pride	-9663
▁municip	-9664
▁choosing	-9665
▁collective	-9666
▁trump	-9667
▁universities	-9668
-12	-9669
▁2)	-9670
▁(2)	-9671
▁Norm	-9672
▁aggressive	-9673
▁transmitted	-9674
Med	-9675
▁Mess	-9676
▁neat	-9677
▁Saint	-9678
▁bubble	-9679
▁nobody	-9680
made	-9681
▁GDP	-9682
▁Resp	-9683
▁chim	-9684
osaurs	-9685
othing	-9686
▁Third	-9687
▁Arabic	-9688
▁belongs	-9689
▁suspect	-9690
▁Pope	-9691
▁scales	-9692
▁umbrell	-9693
▁discussions	-9694
was	-9695
yes	-9696
emia	-9697
▁lip	-9698
▁doct	-9699
▁licked	-9700
▁3:	-9701
▁belt	-9702
▁stup	-9703
uction	-9704
▁adopt	-9705
▁slipped	-9706
▁unlikely	-9707
occ	-9708
inde	-9709
opard	-9710
▁globe	-9711
▁scope	-9712
▁assemb	-9713
▁FDA	-9714
▁hosp	-9715
▁quiz	-9716
▁Moses	-9717
▁permit	-9718
▁origins	-9719
▁vaccines	-9720
▁references	-9721
eras	-9722
neys	-9723
heart	-9724
omers	-9725
▁flame	-9726
▁Garden	-9727
▁Problem	-9728
▁sessions	-9729
▁Different	-9730
▁productivity	-9731
▁jam	-9732
earch	-9733
▁cort	-9734
▁stove	-9735
▁Greece	-9736
▁indirect	-9737
▁lighting	-9738
▁Historical	-9739
Con	-9740
eros	-9741
▁Mur	-9742
ppers	-9743
ocated	-9744
▁Friday	-9745
▁Angeles	-9746
▁compost	-9747
▁pressed	-9748
iterranean	-9749
▁resistant	-9750
▁specified	-9751
▁prescribed	-9752
▁Ans	-9753
▁cooler	-9754
▁Support	-9755
▁clients	-9756
▁targeted	-9757
bean	-9758
▁visits	-9759
▁volcano	-9760
▁Wikipedia	-9761
▁bacterial	-9762
To	-9763
aic	-9764
▁removing	-9765
▁calculated	-9766
▁capabilities	-9767
ols	-9768
rif	-9769
▁ruled	-9770
▁bottles	-9771
▁separation	-9772
UT	-9773
▁Hyd	-9774
▁Lib	-9775
▁Colon	-9776
specific	-9777
▁sounded	-9778
▁Heritage	-9779
▁envelope	-9780
:||	-9781
rox	-9782
agan	-9783
▁Ram	-9784
▁Area	-9785
▁frown	-9786
onal	-9787
▁cuts	-9788
▁inch	-9789
▁accord	-9790
▁convey	-9791
▁refugees	-9792
▁reflection	-9793
%,	-9794
▁Andy	-9795
▁Pain	-9796
▁COVID	-9797
▁Obama	-9798
▁Material	-9799
▁creativity	-9800
EE	-9801
▁$1	-9802
▁EPA	-9803
▁Real	-9804
▁depict	-9805
▁Ancient	-9806
▁abstract	-9807
▁accidents	-9808
!”	-9809
▁Bon	-9810
ifier	-9811
▁Level	-9812
▁equality	-9813
rated	-9814
zards	-9815
▁Local	-9816
▁swall	-9817
agnetic	-9818
hire	-9819
▁plug	-9820
▁Blood	-9821
▁ceiling	-9822
▁entrance	-9823
▁festival	-9824
86	-9825
RNA	-9826
enh	-9827
ico	-9828
Here	-9829
▁tack	-9830
▁yoga	-9831
▁beetle	-9832
▁classic	-9833
▁spreading	-9834
▁Anne	-9835
▁Trade	-9836
▁cocoa	-9837
▁scratch	-9838
oline	-9839
▁Week	-9840
▁deaf	-9841
▁shoe	-9842
▁recre	-9843
▁metals	-9844
▁refriger	-9845
▁transferred	-9846
▁Navy	-9847
▁fats	-9848
advant	-9849
▁ethical	-9850
▁documented	-9851
▁(“	-9852
▁ow	-9853
rick	-9854
uther	-9855
words	-9856
orters	-9857
▁salad	-9858
▁fountain	-9859
rix	-9860
▁gest	-9861
▁rode	-9862
edient	-9863
▁dict	-9864
iblical	-9865
▁Pakistan	-9866
regon	-9867
▁Behav	-9868
▁devast	-9869
▁colonial	-9870
▁associate	-9871
▁personnel	-9872
▁nutritional	-9873
ician	-9874
▁Mississ	-9875
▁Mach	-9876
▁bulb	-9877
▁intr	-9878
▁soph	-9879
▁varied	-9880
▁Secretary	-9881
▁meaningful	-9882
49	-9883
SS	-9884
▁(6	-9885
hess	-9886
▁ven	-9887
▁scare	-9888
▁Rather	-9889
▁funded	-9890
▁cheerful	-9891
▁Text	-9892
▁grey	-9893
▁keys	-9894
▁Model	-9895
▁witch	-9896
▁hearts	-9897
▁subsid	-9898
ippi	-9899
iously	-9900
▁veterin	-9901
▁resil	-9902
▁grades	-9903
▁proudly	-9904
▁beds	-9905
▁fant	-9906
estock	-9907
▁sodium	-9908
▁occupied	-9909
▁entertain	-9910
opes	-9911
▁Prom	-9912
▁subt	-9913
▁engagement	-9914
On	-9915
ught	-9916
erable	-9917
▁Introduction	-9918
▁Sleep	-9919
issance	-9920
▁humble	-9921
▁Diabetes	-9922
▁Similarly	-9923
De	-9924
vals	-9925
▁Ide	-9926
raham	-9927
▁brid	-9928
hemistry	-9929
▁Working	-9930
▁basically	-9931
▁Understanding	-9932
LC	-9933
ogens	-9934
▁magnitude	-9935
▁absolutely	-9936
oca	-9937
▁dug	-9938
aired	-9939
▁2011.	-9940
▁Marine	-9941
▁joints	-9942
ustration	-9943
▁facilitate	-9944
▁Fer	-9945
▁Self	-9946
▁tact	-9947
▁Hawai	-9948
▁deploy	-9949
▁passes	-9950
▁Mediterranean	-9951
cut	-9952
cond	-9953
▁peer	-9954
▁shed	-9955
▁Chief	-9956
▁codes	-9957
▁module	-9958
▁vector	-9959
▁duration	-9960
▁ecosystems	-9961
▁establishing	-9962
▁possibilities	-9963
▁CH	-9964
quiry	-9965
▁yarn	-9966
▁salmon	-9967
▁spacecraft	-9968
▁volunteers	-9969
▁involvement	-9970
def	-9971
▁sug	-9972
▁appeal	-9973
▁Process	-9974
▁villages	-9975
▁dipl	-9976
▁assets	-9977
▁sensors	-9978
▁Computer	-9979
2),	-9980
▁Ont	-9981
ourse	-9982
▁Confed	-9983
▁nowhere	-9984
▁Bes	-9985
▁Turk	-9986
▁encl	-9987
▁Bella	-9988
▁Monday	-9989
▁Temple	-9990
▁replacement	-9991
▁15,	-9992
eries	-9993
▁1999	-9994
▁gast	-9995
astics	-9996
▁disgust	-9997
▁dreamed	-9998
▁delighted	-9999
▁instances	-10000
▁preparing	-10001
▁tire	-10002
▁pasta	-10003
rapeutic	-10004
▁annually	-10005
uras	-10006
▁Import	-10007
▁varies	-10008
▁solving	-10009
▁Dictionary	-10010
79	-10011
Pro	-10012
bury	-10013
▁Hop	-10014
▁Sug	-10015
terior	-10016
▁Corps	-10017
▁algae	-10018
outheast	-10019
▁mammals	-10020
▁homework	-10021
▁preserved	-10022
you	-10023
-201	-10024
ilson	-10025
▁empire	-10026
▁turkey	-10027
▁complain	-10028
▁develops	-10029
▁identical	-10030
▁oak	-10031
icket	-10032
ciples	-10033
▁persu	-10034
▁differ	-10035
▁purchased	-10036
▁partnership	-10037
88	-10038
dri	-10039
nda	-10040
asis	-10041
▁ink	-10042
▁True	-10043
▁aside	-10044
▁bounce	-10045
▁Assembly	-10046
▁stranger	-10047
EG	-10048
mia	-10049
▁UV	-10050
apes	-10051
oves	-10052
iations	-10053
▁pepper	-10054
▁whales	-10055
▁disagree	-10056
▁membrane	-10057
▁encouraging	-10058
▁representing	-10059
run	-10060
▁Sad	-10061
▁pand	-10062
▁sons	-10063
▁zones	-10064
▁allergic	-10065
▁unexpected	-10066
▁Tues	-10067
▁Creek	-10068
▁attic	-10069
regular	-10070
▁admired	-10071
▁Wednes	-10072
▁arrive	-10073
▁Commons	-10074
▁outdoor	-10075
▁lightning	-10076
▁fascinating	-10077
▁cas	-10078
▁liberal	-10079
▁utility	-10080
▁sciences	-10081
▁acknowled	-10082
▁vig	-10083
ateral	-10084
▁handling	-10085
ologically	-10086
▁limitations	-10087
requ	-10088
athan	-10089
uctor	-10090
▁vibr	-10091
▁irrig	-10092
▁maxim	-10093
uscript	-10094
▁bicycle	-10095
▁extraord	-10096
▁pel	-10097
▁Grace	-10098
▁Think	-10099
▁wiped	-10100
▁default	-10101
▁brightly	-10102
▁precisely	-10103
date	-10104
▁wed	-10105
istance	-10106
▁Oregon	-10107
▁burden	-10108
▁grocer	-10109
▁jurisd	-10110
▁complement	-10111
▁buff	-10112
lected	-10113
▁legit	-10114
▁pupils	-10115
▁advances	-10116
▁productive	-10117
▁11,	-10118
▁gly	-10119
▁Clean	-10120
▁canal	-10121
▁Twitter	-10122
▁obedient	-10123
▁invention	-10124
▁distinction	-10125
pless	-10126
▁Liber	-10127
▁playful	-10128
▁Code	-10129
▁palace	-10130
▁Clinical	-10131
▁Meanwhile	-10132
Tim	-10133
http	-10134
ilst	-10135
▁Nemo	-10136
▁bonds	-10137
▁hal	-10138
▁revers	-10139
▁invasive	-10140
▁NC	-10141
▁inev	-10142
▁goose	-10143
▁dating	-10144
▁Mexican	-10145
▁broccoli	-10146
▁entitled	-10147
▁scenario	-10148
▁specialist	-10149
▁enforcement	-10150
bris	-10151
▁Bern	-10152
through	-10153
▁Philos	-10154
▁estate	-10155
▁Univers	-10156
▁faculty	-10157
▁reveals	-10158
▁Fed	-10159
▁Nic	-10160
▁umbrella	-10161
▁requiring	-10162
umns	-10163
▁Tay	-10164
owing	-10165
plane	-10166
▁rush	-10167
irable	-10168
▁Ducky	-10169
▁dairy	-10170
▁pitch	-10171
▁baking	-10172
▁thirty	-10173
xual	-10174
doors	-10175
▁snee	-10176
antine	-10177
▁Origin	-10178
▁streams	-10179
▁shopping	-10180
▁attempted	-10181
▁microscope	-10182
▁translated	-10183
bro	-10184
fere	-10185
▁prey	-10186
▁Bureau	-10187
▁planes	-10188
ribution	-10189
▁Station	-10190
▁inherent	-10191
▁assignment	-10192
▁candidates	-10193
▁controlling	-10194
▁12,	-10195
opter	-10196
▁provision	-10197
▁55	-10198
▁vag	-10199
▁noun	-10200
gments	-10201
▁penal	-10202
▁conversion	-10203
▁celebration	-10204
▁Doc	-10205
▁crazy	-10206
▁edges	-10207
▁rushed	-10208
▁breathe	-10209
▁invasion	-10210
▁Mississippi	-10211
CE	-10212
rub	-10213
lesh	-10214
▁lun	-10215
▁rent	-10216
▁Individ	-10217
▁insights	-10218
▁dependable	-10219
▁Ord	-10220
plate	-10221
▁Tool	-10222
▁palm	-10223
▁shocked	-10224
▁neurolog	-10225
▁philosoph	-10226
▁Scientific	-10227
BM	-10228
ayer	-10229
pathy	-10230
▁Risk	-10231
▁comet	-10232
▁crawl	-10233
▁surgical	-10234
▁inhabitants	-10235
▁sacred	-10236
▁gathering	-10237
▁acceptable	-10238
▁administrative	-10239
▁AR	-10240
ieth	-10241
▁nic	-10242
▁vet	-10243
▁clap	-10244
▁hybrid	-10245
oys	-10246
▁pH	-10247
▁Dam	-10248
▁Lew	-10249
cycle	-10250
▁disk	-10251
▁armed	-10252
▁Spirit	-10253
▁hunter	-10254
▁treaty	-10255
▁prosper	-10256
▁graduate	-10257
oore	-10258
▁Until	-10259
▁winds	-10260
▁flavor	-10261
▁surveys	-10262
▁accomplish	-10263
▁Jr	-10264
ethe	-10265
mentia	-10266
ologic	-10267
▁Corpor	-10268
▁Others	-10269
▁marble	-10270
▁applies	-10271
▁payment	-10272
▁Ah	-10273
▁wool	-10274
▁Buddh	-10275
▁hotel	-10276
▁pairs	-10277
▁tends	-10278
▁prisoners	-10279
▁metabolism	-10280
han	-10281
▁OS	-10282
▁orn	-10283
▁Term	-10284
▁bits	-10285
▁panc	-10286
inates	-10287
▁camps	-10288
ums	-10289
▁ID	-10290
▁Ash	-10291
▁Var	-10292
engers	-10293
▁merch	-10294
▁kicked	-10295
UL	-10296
assium	-10297
▁tumors	-10298
▁markers	-10299
▁currency	-10300
▁overview	-10301
Os	-10302
▁McC	-10303
ulous	-10304
▁hier	-10305
▁amino	-10306
▁brick	-10307
▁cited	-10308
▁divine	-10309
▁Dub	-10310
▁dies	-10311
▁frozen	-10312
▁legend	-10313
▁toilet	-10314
▁readily	-10315
▁discipline	-10316
itus	-10317
▁lid	-10318
▁unh	-10319
▁Arts	-10320
▁barriers	-10321
eon	-10322
▁Aud	-10323
ighth	-10324
▁menu	-10325
urable	-10326
▁Prince	-10327
▁caring	-10328
▁sprink	-10329
▁combine	-10330
▁deliber	-10331
▁totally	-10332
▁Wednesday	-10333
inois	-10334
▁Story	-10335
▁atoms	-10336
▁optimal	-10337
▁punishment	-10338
oult	-10339
stic	-10340
grade	-10341
▁weld	-10342
urrent	-10343
▁tummy	-10344
▁complexity	-10345
▁circulation	-10346
pre	-10347
ollo	-10348
▁Hom	-10349
section	-10350
▁posted	-10351
▁stupid	-10352
▁neurons	-10353
▁brighter	-10354
▁regulate	-10355
▁semi	-10356
▁diets	-10357
▁dimin	-10358
▁arrival	-10359
▁infants	-10360
▁spoiled	-10361
▁assembly	-10362
▁bullying	-10363
▁minority	-10364
▁restored	-10365
▁flexibility	-10366
.),	-10367
▁Fa	-10368
▁Lo	-10369
arnt	-10370
▁dive	-10371
▁Sandy	-10372
reshold	-10373
▁Mother	-10374
▁nicely	-10375
function	-10376
ications	-10377
▁stumbled	-10378
▁ultimate	-10379
▁9,	-10380
▁ft	-10381
pert	-10382
These	-10383
▁auto	-10384
▁dove	-10385
▁pert	-10386
▁fifth	-10387
▁twelve	-10388
▁Teachers	-10389
▁deposits	-10390
AB	-10391
lon	-10392
▁exclud	-10393
▁addresses	-10394
▁exclaimed	-10395
▁workplace	-10396
▁kilometers	-10397
▁prevalence	-10398
anz	-10399
▁600	-10400
izers	-10401
▁Conc	-10402
ritten	-10403
▁illnesses	-10404
▁influences	-10405
CR	-10406
kind	-10407
▁abol	-10408
▁align	-10409
▁trading	-10410
▁baseball	-10411
▁outbreak	-10412
▁survived	-10413
▁triangle	-10414
▁Nutrition	-10415
▁endangered	-10416
▁exhibition	-10417
▁practition	-10418
omed	-10419
▁gem	-10420
▁till	-10421
▁learnt	-10422
▁elevated	-10423
Pl	-10424
Sp	-10425
type	-10426
uled	-10427
▁2012,	-10428
aternal	-10429
▁senses	-10430
▁enzymes	-10431
MP	-10432
▁39	-10433
▁rac	-10434
after	-10435
▁pigs	-10436
▁arise	-10437
▁incent	-10438
▁consent	-10439
▁proposal	-10440
)||	-10441
▁978	-10442
▁Hay	-10443
▁crash	-10444
▁Alaska	-10445
▁Future	-10446
▁spatial	-10447
▁approval	-10448
TC	-10449
▁beak	-10450
aneous	-10451
▁brains	-10452
▁scholar	-10453
amination	-10454
▁calculate	-10455
▁Occ	-10456
▁Ray	-10457
▁Print	-10458
▁prime	-10459
▁Contact	-10460
▁malaria	-10461
▁registered	-10462
▁conclusions	-10463
▁Abraham	-10464
▁floating	-10465
▁sediment	-10466
path	-10467
erving	-10468
western	-10469
▁copies	-10470
▁dentist	-10471
▁humidity	-10472
▁register	-10473
▁immigrants	-10474
▁statistical	-10475
orus	-10476
▁toast	-10477
▁parrot	-10478
▁relate	-10479
▁Indones	-10480
▁Jackson	-10481
▁amongst	-10482
▁scattered	-10483
▁susceptible	-10484
tti	-10485
▁ul	-10486
▁Ren	-10487
▁ster	-10488
mother	-10489
person	-10490
▁oceans	-10491
▁Tuesday	-10492
▁painter	-10493
▁initiatives	-10494
rets	-10495
▁Typ	-10496
oking	-10497
▁cact	-10498
▁pose	-10499
▁inver	-10500
▁spons	-10501
▁varying	-10502
▁analyzed	-10503
▁churches	-10504
edu	-10505
itic	-10506
books	-10507
ockey	-10508
raine	-10509
▁nodes	-10510
▁Berlin	-10511
▁fiction	-10512
▁judgment	-10513
▁swelling	-10514
▁fertilizer	-10515
▁dramatically	-10516
▁12.	-10517
▁prox	-10518
▁drives	-10519
▁accurately	-10520
bour	-10521
inch	-10522
▁Hard	-10523
papers	-10524
▁squash	-10525
▁alongside	-10526
▁contributing	-10527
py	-10528
▁Ult	-10529
angel	-10530
▁Mind	-10531
▁quit	-10532
▁thumb	-10533
▁cycles	-10534
▁laughs	-10535
▁potatoes	-10536
▁continent	-10537
▁MP	-10538
ebra	-10539
▁cig	-10540
▁vend	-10541
▁collar	-10542
▁sectors	-10543
▁operated	-10544
43	-10545
▁SP	-10546
affe	-10547
mail	-10548
▁inh	-10549
▁guns	-10550
▁vice	-10551
▁lakes	-10552
▁Sustain	-10553
uated	-10554
▁Freed	-10555
▁Altern	-10556
▁optical	-10557
▁tension	-10558
So	-10559
mn	-10560
▁rust	-10561
▁Exerc	-10562
▁morph	-10563
▁medieval	-10564
▁ancestors	-10565
▁theoretical	-10566
ls	-10567
ropri	-10568
▁athletes	-10569
▁climbing	-10570
▁dreaming	-10571
step	-10572
▁sore	-10573
▁minimize	-10574
▁receives	-10575
▁surrender	-10576
▁orientation	-10577
▁Map	-10578
▁sock	-10579
▁Short	-10580
▁coral	-10581
▁Jefferson	-10582
▁directory	-10583
pdf	-10584
▁Tar	-10585
▁width	-10586
▁crayon	-10587
▁speaker	-10588
▁careless	-10589
▁cellular	-10590
▁profound	-10591
▁attributed	-10592
▁veterinarian	-10593
di	-10594
▁mush	-10595
▁shone	-10596
▁grammar	-10597
▁hormones	-10598
▁prevents	-10599
▁confusion	-10600
▁dimensions	-10601
▁GM	-10602
ipher	-10603
▁holy	-10604
▁hanging	-10605
front	-10606
▁cudd	-10607
▁Essay	-10608
▁potato	-10609
▁outdoors	-10610
▁reflects	-10611
▁disadvant	-10612
▁guarantee	-10613
▁incidence	-10614
▁efficiently	-10615
▁ON	-10616
ulates	-10617
▁Follow	-10618
▁perpet	-10619
▁voices	-10620
ceptions	-10621
▁Emperor	-10622
▁chickens	-10623
▁striking	-10624
▁compensation	-10625
▁evolutionary	-10626
▁occasionally	-10627
vae	-10628
▁Ontario	-10629
▁Philipp	-10630
▁letting	-10631
BI	-10632
▁Ok	-10633
▁Ariz	-10634
▁Object	-10635
▁barrier	-10636
▁phenomena	-10637
▁distinguish	-10638
▁civilization	-10639
▁determination	-10640
▁Exp	-10641
▁Linux	-10642
▁viral	-10643
▁relating	-10644
▁describing	-10645
▁specialized	-10646
OD	-10647
enter	-10648
▁skip	-10649
▁enzyme	-10650
▁jacket	-10651
▁resemb	-10652
▁fearful	-10653
▁engineer	-10654
▁abundance	-10655
▁reasoning	-10656
▁pesticides	-10657
▁suggesting	-10658
ois	-10659
–19	-10660
plex	-10661
▁Below	-10662
▁procl	-10663
ometric	-10664
▁Romans	-10665
▁lawyer	-10666
▁precious	-10667
▁encounter	-10668
▁Indigenous	-10669
▁systematic	-10670
▁consequence	-10671
da	-10672
imb	-10673
▁Neg	-10674
itzer	-10675
otypes	-10676
▁Applic	-10677
struction	-10678
▁synthetic	-10679
▁elementary	-10680
OW	-10681
iral	-10682
▁1.5	-10683
▁jug	-10684
▁Exec	-10685
▁10,000	-10686
▁candle	-10687
▁duties	-10688
▁summar	-10689
▁themes	-10690
▁predicted	-10691
▁returning	-10692
▁addressing	-10693
.1	-10694
89	-10695
bed	-10696
ials	-10697
ricks	-10698
▁Nation	-10699
▁popcorn	-10700
▁theater	-10701
▁thirsty	-10702
▁tendency	-10703
▁hospitals	-10704
ali	-10705
oting	-10706
ropol	-10707
▁cush	-10708
▁Marsh	-10709
▁panic	-10710
▁shine	-10711
▁sniff	-10712
▁offices	-10713
▁abandoned	-10714
ideo	-10715
abling	-10716
▁cabin	-10717
▁sensor	-10718
▁ignorant	-10719
▁managers	-10720
FS	-10721
▁Win	-10722
▁Cooper	-10723
▁reproductive	-10724
iser	-10725
neum	-10726
pany	-10727
ATION	-10728
ihood	-10729
▁nosy	-10730
▁genome	-10731
▁Illinois	-10732
▁Microsoft	-10733
▁conflicts	-10734
▁250	-10735
▁50%	-10736
otion	-10737
▁Priv	-10738
▁prol	-10739
▁sulf	-10740
▁classification	-10741
▁Neu	-10742
olves	-10743
▁Line	-10744
▁likel	-10745
▁Wilson	-10746
▁grapes	-10747
▁Teaching	-10748
▁adoption	-10749
▁restricted	-10750
MA	-10751
imm	-10752
uns	-10753
amil	-10754
▁Dra	-10755
▁rank	-10756
▁Hindu	-10757
▁incom	-10758
▁Matthew	-10759
▁shooting	-10760
▁discharge	-10761
▁surveillance	-10762
LS	-10763
ndry	-10764
▁Fig	-10765
adows	-10766
▁Iron	-10767
▁Kent	-10768
▁Image	-10769
▁penet	-10770
▁Making	-10771
▁retail	-10772
▁robust	-10773
▁workshe	-10774
▁dictionary	-10775
▁atmospheric	-10776
gers	-10777
copic	-10778
redit	-10779
▁1000	-10780
▁caps	-10781
▁Jerry	-10782
▁fluor	-10783
▁parks	-10784
▁safer	-10785
▁Script	-10786
▁awarded	-10787
▁sacrifice	-10788
▁simultaneously	-10789
▁hairy	-10790
▁debris	-10791
▁minimal	-10792
▁livestock	-10793
igm	-10794
▁gym	-10795
quality	-10796
Our	-10797
erb	-10798
imp	-10799
▁Cub	-10800
untary	-10801
▁Jersey	-10802
▁export	-10803
▁teaches	-10804
ineteenth	-10805
▁platforms	-10806
▁Hit	-10807
▁rag	-10808
angar	-10809
▁loan	-10810
▁embed	-10811
▁colored	-10812
▁motivation	-10813
▁consistently	-10814
ika	-10815
aper	-10816
bage	-10817
▁PhD	-10818
▁vom	-10819
▁Along	-10820
▁erect	-10821
▁render	-10822
▁popularity	-10823
▁inspiration	-10824
GE	-10825
▁Inn	-10826
▁noteb	-10827
▁weren	-10828
isations	-10829
!!	-10830
bec	-10831
▁lets	-10832
reprene	-10833
▁missions	-10834
▁designated	-10835
▁Bobo	-10836
▁Ford	-10837
▁Proper	-10838
▁Archived	-10839
▁invented	-10840
▁inflation	-10841
TA	-10842
mo	-10843
thur	-10844
▁Sher	-10845
▁raced	-10846
▁achieving	-10847
nah	-10848
▁11.	-10849
ending	-10850
iances	-10851
▁2013.	-10852
▁carpet	-10853
pectives	-10854
▁Maryland	-10855
▁rainfall	-10856
▁flashlight	-10857
▁adolescents	-10858
▁4:	-10859
▁Li	-10860
▁14,	-10861
▁Cit	-10862
▁Hot	-10863
▁Full	-10864
▁tang	-10865
▁talks	-10866
▁grandpa	-10867
▁skeleton	-10868
eman	-10869
fire	-10870
▁Hur	-10871
▁Decl	-10872
formed	-10873
natural	-10874
▁Tweety	-10875
▁partly	-10876
▁trusted	-10877
▁crocodile	-10878
▁CP	-10879
▁800	-10880
▁olive	-10881
fulness	-10882
▁cameras	-10883
rays	-10884
▁Hab	-10885
▁Joey	-10886
▁boun	-10887
▁Enter	-10888
▁flute	-10889
▁hedge	-10890
▁ranges	-10891
▁savings	-10892
▁collapse	-10893
▁meetings	-10894
▁attitudes	-10895
▁consisting	-10896
▁Nevertheless	-10897
▁1998	-10898
▁turb	-10899
▁Guard	-10900
▁pirate	-10901
▁Culture	-10902
▁citizen	-10903
▁filling	-10904
▁boundary	-10905
Read	-10906
itate	-10907
▁trumpet	-10908
▁therapies	-10909
▁reputation	-10910
thod	-10911
profit	-10912
uclear	-10913
▁Brain	-10914
▁Always	-10915
▁lizard	-10916
▁yogurt	-10917
▁shaking	-10918
isticated	-10919
▁candidate	-10920
▁democratic	-10921
▁alternatives	-10922
iy	-10923
also	-10924
dess	-10925
robe	-10926
▁Five	-10927
cker	-10928
even	-10929
▁Six	-10930
▁pollut	-10931
▁shares	-10932
▁strings	-10933
▁withdraw	-10934
▁prevented	-10935
85	-10936
▁od	-10937
▁oy	-10938
ocent	-10939
▁Java	-10940
▁Jean	-10941
▁avoc	-10942
▁hadn	-10943
▁crane	-10944
▁firms	-10945
▁certific	-10946
▁reviewed	-10947
▁traveled	-10948
DL	-10949
▁?	-10950
1),	-10951
page	-10952
rait	-10953
▁Had	-10954
▁Tenn	-10955
▁Product	-10956
▁columns	-10957
▁allergies	-10958
96	-10959
iens	-10960
obic	-10961
arter	-10962
▁essays	-10963
▁devoted	-10964
▁Williams	-10965
▁minister	-10966
sor	-10967
▁PL	-10968
ouri	-10969
▁vest	-10970
▁penny	-10971
▁impair	-10972
▁manual	-10973
▁bladder	-10974
▁algorithm	-10975
▁contaminated	-10976
▁representatives	-10977
▁Uk	-10978
grow	-10979
▁20,	-10980
▁bossy	-10981
▁worms	-10982
▁Arizona	-10983
▁dolphin	-10984
▁dynamics	-10985
▁sunflower	-10986
▁likelihood	-10987
▁CS	-10988
imic	-10989
▁Rog	-10990
▁2010,	-10991
▁fraction	-10992
best	-10993
▁muc	-10994
▁lime	-10995
▁alien	-10996
ictions	-10997
▁murder	-10998
▁Schools	-10999
▁carries	-11000
▁monkeys	-11001
▁transmit	-11002
▁incorporated	-11003
42	-11004
▁cube	-11005
unning	-11006
▁Number	-11007
▁tourism	-11008
▁channels	-11009
▁expanding	-11010
▁neighbors	-11011
▁Ot	-11012
bble	-11013
rimp	-11014
▁gor	-11015
nders	-11016
▁bars	-11017
▁diarr	-11018
▁sheets	-11019
▁sensory	-11020
▁spilled	-11021
▁Governor	-11022
▁provisions	-11023
comed	-11024
▁affairs	-11025
▁matches	-11026
▁graceful	-11027
▁associations	-11028
▁impr	-11029
ighters	-11030
▁admire	-11031
▁stabil	-11032
▁predomin	-11033
▁workshop	-11034
▁producers	-11035
▁containers	-11036
▁collections	-11037
▁definitions	-11038
ji	-11039
▁Az	-11040
▁Ger	-11041
▁Mand	-11042
▁chir	-11043
▁toes	-11044
▁Captain	-11045
▁borders	-11046
▁adjacent	-11047
▁quantities	-11048
iki	-11049
▁Bow	-11050
▁Ent	-11051
▁mile	-11052
▁rings	-11053
▁seasonal	-11054
imensional	-11055
uv	-11056
▁%	-11057
3),	-11058
All	-11059
oper	-11060
▁Ele	-11061
▁bump	-11062
▁altered	-11063
▁dialogue	-11064
▁traveling	-11065
▁manuscript	-11066
▁physicians	-11067
acht	-11068
▁Duke	-11069
▁worn	-11070
▁2008,	-11071
▁phones	-11072
▁threshold	-11073
bone	-11074
▁Mes	-11075
forced	-11076
▁brace	-11077
▁labels	-11078
▁severity	-11079
▁healthier	-11080
▁WW	-11081
umsy	-11082
œLet	-11083
isons	-11084
reens	-11085
▁fart	-11086
▁dying	-11087
▁excav	-11088
▁chasing	-11089
▁injured	-11090
▁attacked	-11091
▁helpless	-11092
▁Rab	-11093
▁orb	-11094
▁hook	-11095
▁acorn	-11096
▁sympt	-11097
usively	-11098
▁inject	-11099
▁installation	-11100
OP	-11101
arks	-11102
opus	-11103
▁Dyn	-11104
▁aunt	-11105
▁Write	-11106
▁aspir	-11107
▁lingu	-11108
▁steal	-11109
▁neural	-11110
▁charges	-11111
▁segment	-11112
▁incorporate	-11113
ocity	-11114
▁stems	-11115
▁Poland	-11116
▁argues	-11117
▁excitedly	-11118
▁transplant	-11119
CP	-11120
▁46	-11121
▁NS	-11122
▁Lat	-11123
itoes	-11124
owned	-11125
▁swan	-11126
▁thesis	-11127
▁weekly	-11128
▁marched	-11129
▁settlers	-11130
▁welcomed	-11131
▁metabolic	-11132
▁concentrated	-11133
▁Isa	-11134
▁Nap	-11135
oided	-11136
▁Bird	-11137
▁Satur	-11138
▁precip	-11139
▁tomato	-11140
▁Foreign	-11141
▁placing	-11142
▁analyses	-11143
▁restless	-11144
▁pediatric	-11145
▁suggestions	-11146
▁carbohydrates	-11147
list	-11148
▁Pow	-11149
▁Sep	-11150
ooked	-11151
▁Tree	-11152
▁fork	-11153
▁itch	-11154
istent	-11155
ndered	-11156
▁jumps	-11157
▁earned	-11158
▁plasma	-11159
▁fastest	-11160
▁texture	-11161
▁Standards	-11162
▁irregular	-11163
▁tolerance	-11164
▁Na	-11165
olds	-11166
▁Ban	-11167
inals	-11168
▁Club	-11169
▁dess	-11170
necess	-11171
▁Daily	-11172
ivities	-11173
▁aggreg	-11174
▁artistic	-11175
▁accomplished	-11176
wa	-11177
aine	-11178
▁lux	-11179
▁pod	-11180
hetti	-11181
▁fram	-11182
▁freely	-11183
▁solved	-11184
▁prolong	-11185
ja	-11186
nia	-11187
elcome	-11188
erness	-11189
▁2008.	-11190
ructive	-11191
▁bridges	-11192
▁improves	-11193
▁isolation	-11194
arded	-11195
found	-11196
omous	-11197
▁Marc	-11198
▁onion	-11199
▁ruler	-11200
conomic	-11201
uncture	-11202
▁Volume	-11203
▁timing	-11204
▁absorbed	-11205
▁newspapers	-11206
▁officially	-11207
▁FA	-11208
ghan	-11209
▁183	-11210
▁Scholar	-11211
▁Student	-11212
▁relaxed	-11213
▁tutorial	-11214
generation	-11215
▁42	-11216
▁oils	-11217
▁implies	-11218
▁missile	-11219
▁trapped	-11220
▁Training	-11221
▁Architect	-11222
▁Has	-11223
▁Wales	-11224
▁deleg	-11225
▁infin	-11226
entieth	-11227
▁Theory	-11228
▁clumsy	-11229
▁sovere	-11230
▁lasting	-11231
▁dementia	-11232
▁aesthetic	-11233
1/	-11234
▁Ten	-11235
▁Tol	-11236
lines	-11237
▁Toby	-11238
▁bats	-11239
ulsion	-11240
▁reviews	-11241
▁attended	-11242
▁employee	-11243
▁addiction	-11244
Le	-11245
utical	-11246
▁Apollo	-11247
▁railroad	-11248
▁terminal	-11249
▁residential	-11250
▁extraordinary	-11251
▁lions	-11252
▁pengu	-11253
▁dollar	-11254
▁winning	-11255
▁shipping	-11256
▁evaluated	-11257
sa	-11258
One	-11259
▁Dri	-11260
▁hate	-11261
nesota	-11262
umbers	-11263
▁Benef	-11264
▁soils	-11265
▁birdie	-11266
▁Denmark	-11267
▁contrary	-11268
▁prospect	-11269
▁digestive	-11270
▁permitted	-11271
sex	-11272
alog	-11273
▁Sav	-11274
▁Need	-11275
▁padd	-11276
mental	-11277
▁Issue	-11278
▁repet	-11279
▁crimes	-11280
▁obviously	-11281
▁partially	-11282
▁compassionate	-11283
56	-11284
▁Dog	-11285
▁LED	-11286
▁Opp	-11287
▁gloom	-11288
▁Taking	-11289
▁treasures	-11290
▁Enc	-11291
onsin	-11292
▁Front	-11293
▁Years	-11294
▁Besides	-11295
▁Protest	-11296
▁frequencies	-11297
lyn	-11298
sub	-11299
▁SC	-11300
thood	-11301
▁steep	-11302
▁stere	-11303
▁lively	-11304
original	-11305
security	-11306
▁binding	-11307
▁Practice	-11308
▁stickers	-11309
▁expedition	-11310
▁therapeutic	-11311
vy	-11312
▁Jun	-11313
▁pist	-11314
▁Steve	-11315
▁reads	-11316
▁Hispan	-11317
▁contrad	-11318
▁historian	-11319
▁Democratic	-11320
pie	-11321
uum	-11322
▁Bh	-11323
▁Guid	-11324
▁exch	-11325
▁2011,	-11326
▁helic	-11327
▁defeat	-11328
▁routes	-11329
▁dessert	-11330
▁thyroid	-11331
▁consuming	-11332
▁practicing	-11333
74	-11334
▁Arm	-11335
▁gran	-11336
▁tray	-11337
▁yeast	-11338
▁educated	-11339
▁utilized	-11340
tebr	-11341
▁Bol	-11342
▁fog	-11343
▁pest	-11344
▁sits	-11345
▁strip	-11346
▁tricks	-11347
isconsin	-11348
ractions	-11349
▁Certain	-11350
▁abundant	-11351
▁dinosaurs	-11352
▁convenient	-11353
▁constitutional	-11354
bles	-11355
▁gaz	-11356
▁Hung	-11357
▁seats	-11358
▁Nether	-11359
▁acquire	-11360
▁lighter	-11361
▁avoiding	-11362
▁Depression	-11363
▁approached	-11364
Or	-11365
unn	-11366
▁Sem	-11367
arios	-11368
▁Syria	-11369
▁zebra	-11370
▁loaded	-11371
chnology	-11372
etically	-11373
▁designing	-11374
vol	-11375
rics	-11376
▁Fac	-11377
▁tug	-11378
▁bias	-11379
author	-11380
▁shower	-11381
▁Present	-11382
▁avoided	-11383
istically	-11384
▁circular	-11385
▁attributes	-11386
▁developmental	-11387
▁18,	-11388
▁Oil	-11389
inery	-11390
▁Case	-11391
▁axis	-11392
screen	-11393
▁coron	-11394
▁parade	-11395
▁parliament	-11396
kend	-11397
uine	-11398
▁Bru	-11399
▁Prim	-11400
igator	-11401
▁Ellie	-11402
▁Lewis	-11403
▁pants	-11404
▁alumin	-11405
▁expend	-11406
▁helmet	-11407
▁steady	-11408
▁partial	-11409
▁arranged	-11410
▁developers	-11411
▁discoveries	-11412
▁independently	-11413
po	-11414
▁rum	-11415
▁2007,	-11416
▁Death	-11417
▁Buddha	-11418
▁cactus	-11419
▁ferment	-11420
”)	-11421
▁160	-11422
osure	-11423
▁paths	-11424
atories	-11425
▁patent	-11426
▁cluster	-11427
▁investments	-11428
▁sophisticated	-11429
1:	-11430
iro	-11431
omal	-11432
▁Cro	-11433
▁wax	-11434
giene	-11435
▁elig	-11436
▁socc	-11437
▁grams	-11438
▁voting	-11439
▁warmer	-11440
▁charming	-11441
rip	-11442
mony	-11443
▁17,	-11444
▁cliff	-11445
▁sadly	-11446
▁enemies	-11447
▁elephants	-11448
▁traditionally	-11449
.:	-11450
1–	-11451
▁CR	-11452
▁Love	-11453
▁Grade	-11454
▁valve	-11455
▁atomic	-11456
▁absorption	-11457
▁hes	-11458
▁cosm	-11459
▁grants	-11460
▁soccer	-11461
▁seasons	-11462
▁integrity	-11463
▁bron	-11464
▁Chall	-11465
▁Philip	-11466
▁peanut	-11467
▁shrimp	-11468
▁storms	-11469
▁sunset	-11470
▁mailbox	-11471
▁corporate	-11472
▁Assessment	-11473
▁CN	-11474
elta	-11475
▁Cut	-11476
▁Tal	-11477
chond	-11478
▁Grandpa	-11479
▁Parents	-11480
▁broader	-11481
▁happier	-11482
▁defeated	-11483
▁throwing	-11484
▁tomatoes	-11485
▁decreases	-11486
▁accounting	-11487
rec	-11488
▁Date	-11489
▁fatal	-11490
▁tanks	-11491
▁fibers	-11492
▁wander	-11493
▁transformation	-11494
acon	-11495
adequ	-11496
▁herbs	-11497
▁erosion	-11498
▁historians	-11499
TER	-11500
▁Ho	-11501
fers	-11502
▁Tit	-11503
▁hurry	-11504
▁Taylor	-11505
▁Alcohol	-11506
▁cricket	-11507
▁situated	-11508
▁predators	-11509
▁participating	-11510
▁oste	-11511
▁boards	-11512
▁pollen	-11513
▁council	-11514
▁decorate	-11515
▁mutations	-11516
▁1997	-11517
▁Lola	-11518
▁Chile	-11519
aghetti	-11520
▁Master	-11521
▁pursue	-11522
efficient	-11523
su	-11524
exp	-11525
vet	-11526
▁10%	-11527
▁dangers	-11528
▁Missouri	-11529
▁enhanced	-11530
▁wherever	-11531
▁Minnesota	-11532
▁satisfied	-11533
▁horizontal	-11534
dep	-11535
enza	-11536
rose	-11537
▁zip	-11538
▁PMID	-11539
▁larvae	-11540
▁rubbed	-11541
▁potassium	-11542
Se	-11543
wall	-11544
adesh	-11545
▁Chap	-11546
▁seas	-11547
▁retain	-11548
▁anthrop	-11549
▁Available	-11550
▁promising	-11551
▁extinction	-11552
oz	-11553
▁Pu	-11554
▁ion	-11555
▁Soft	-11556
▁pests	-11557
▁Create	-11558
▁update	-11559
▁defects	-11560
▁founder	-11561
▁Currently	-11562
▁authentic	-11563
97	-11564
phal	-11565
▁Hon	-11566
▁tempt	-11567
▁movies	-11568
▁Charlie	-11569
▁pulling	-11570
▁Wisconsin	-11571
▁whispered	-11572
owa	-11573
▁mini	-11574
income	-11575
▁Order	-11576
▁unity	-11577
▁Things	-11578
▁folder	-11579
itochond	-11580
▁Specific	-11581
▁marginal	-11582
▁libraries	-11583
▁connecting	-11584
▁implementing	-11585
BA	-11586
obe	-11587
▁PA	-11588
▁Lic	-11589
▁arc	-11590
▁soy	-11591
acher	-11592
chron	-11593
▁hits	-11594
aceutical	-11595
▁Mathemat	-11596
▁diagnostic	-11597
▁regulatory	-11598
▁configuration	-11599
Ind	-11600
▁Ra	-11601
▁oz	-11602
▁Hitler	-11603
▁mutual	-11604
▁surviv	-11605
▁dressed	-11606
▁Mountain	-11607
▁Represent	-11608
CA	-11609
▁44	-11610
▁von	-11611
chain	-11612
emeter	-11613
estone	-11614
▁tracking	-11615
▁stretching	-11616
▁unemployment	-11617
iley	-11618
▁Opt	-11619
ancer	-11620
▁2009,	-11621
▁appet	-11622
▁onset	-11623
▁spine	-11624
isphere	-11625
▁assault	-11626
▁finance	-11627
▁sailing	-11628
▁immunity	-11629
▁affordable	-11630
▁indicating	-11631
▁SA	-11632
utor	-11633
▁Wars	-11634
▁chips	-11635
▁prone	-11636
▁Search	-11637
▁Questions	-11638
▁economics	-11639
▁Statistics	-11640
▁subsequently	-11641
izz	-11642
▁CDC	-11643
uster	-11644
▁Bell	-11645
▁Allah	-11646
▁Begin	-11647
▁inspe	-11648
▁monthly	-11649
▁Patients	-11650
▁employers	-11651
▁1940	-11652
▁hoop	-11653
▁crust	-11654
▁wages	-11655
▁strains	-11656
▁organism	-11657
▁controversial	-11658
▁(10	-11659
▁cin	-11660
▁Path	-11661
▁nort	-11662
▁Large	-11663
▁kings	-11664
▁indoor	-11665
▁rejected	-11666
▁occupation	-11667
▁vaccination	-11668
▁organisation	-11669
1%	-11670
.||	-11671
III	-11672
▁Facts	-11673
▁encry	-11674
▁sperm	-11675
▁speeds	-11676
▁doctrine	-11677
▁intermedi	-11678
asa	-11679
▁Barb	-11680
▁aster	-11681
▁boots	-11682
▁Select	-11683
▁barber	-11684
▁CT	-11685
eller	-11686
▁Polly	-11687
▁poems	-11688
▁laundry	-11689
oultry	-11690
▁2015.	-11691
▁campus	-11692
▁condem	-11693
▁epidem	-11694
▁Physics	-11695
▁bananas	-11696
▁blowing	-11697
▁crossing	-11698
▁sampling	-11699
▁fertility	-11700
▁spaghetti	-11701
▁automobile	-11702
▁territories	-11703
▁chat	-11704
▁rats	-11705
▁tomb	-11706
▁Darwin	-11707
▁Python	-11708
▁snakes	-11709
quarters	-11710
▁Germans	-11711
▁protest	-11712
▁molecule	-11713
▁appointment	-11714
ement	-11715
▁Balt	-11716
▁pipes	-11717
▁servers	-11718
▁shallow	-11719
▁troubled	-11720
▁execution	-11721
▁transformed	-11722
▁distinguished	-11723
arest	-11724
▁Unit	-11725
isible	-11726
▁peers	-11727
▁damages	-11728
▁arrested	-11729
▁assessed	-11730
▁miserable	-11731
▁discussing	-11732
▁NY	-11733
▁jazz	-11734
▁fifty	-11735
▁trips	-11736
▁Animal	-11737
▁governor	-11738
chair	-11739
uggled	-11740
▁impat	-11741
▁rises	-11742
▁Sophie	-11743
▁hunger	-11744
▁darkness	-11745
▁accompany	-11746
!".	-11747
300	-11748
arer	-11749
atre	-11750
▁McG	-11751
▁tens	-11752
orient	-11753
▁diary	-11754
▁doses	-11755
▁peeked	-11756
▁browser	-11757
▁outline	-11758
▁backpack	-11759
▁thoroughly	-11760
warf	-11761
▁13.	-11762
names	-11763
▁tuna	-11764
▁Defin	-11765
▁defines	-11766
▁payments	-11767
▁astronaut	-11768
Com	-11769
ucked	-11770
▁rhin	-11771
ursday	-11772
▁Imper	-11773
▁Kansas	-11774
▁pushes	-11775
▁Centers	-11776
▁enabled	-11777
▁Chemical	-11778
▁attracted	-11779
▁broadcast	-11780
3%	-11781
onin	-11782
▁25,	-11783
ammad	-11784
anium	-11785
▁1900	-11786
▁Marg	-11787
isting	-11788
owners	-11789
▁Prime	-11790
▁Bridge	-11791
▁timber	-11792
ountered	-11793
jo	-11794
orrh	-11795
▁Cop	-11796
▁Kate	-11797
▁hive	-11798
▁tribe	-11799
▁meteor	-11800
▁violin	-11801
▁arthritis	-11802
▁Ga	-11803
olen	-11804
▁yell	-11805
akespe	-11806
▁consensus	-11807
role	-11808
aying	-11809
▁obser	-11810
▁Friend	-11811
▁encountered	-11812
▁Lt	-11813
▁Paper	-11814
▁empir	-11815
isition	-11816
▁Astron	-11817
▁admitted	-11818
▁qualified	-11819
▁sequences	-11820
▁respectful	-11821
▁continuously	-11822
this	-11823
▁Tax	-11824
▁pulls	-11825
▁substr	-11826
▁writings	-11827
.2	-11828
worm	-11829
▁Dom	-11830
lings	-11831
▁blast	-11832
patitis	-11833
▁imperial	-11834
▁referring	-11835
▁illustrated	-11836
▁Jess	-11837
▁anat	-11838
▁tide	-11839
earing	-11840
▁alike	-11841
▁enlar	-11842
▁Freedom	-11843
▁alleged	-11844
▁resolve	-11845
▁tremend	-11846
▁recommends	-11847
▁prescription	-11848
ori	-11849
▁Joy	-11850
▁Sac	-11851
hedral	-11852
▁Carib	-11853
▁races	-11854
▁scoot	-11855
▁drawer	-11856
▁staying	-11857
upuncture	-11858
▁Executive	-11859
▁assistant	-11860
▁operational	-11861
________________	-11862
commun	-11863
▁frogs	-11864
▁melon	-11865
▁bearing	-11866
▁contamination	-11867
ags	-11868
idal	-11869
ceeds	-11870
▁dear	-11871
▁drift	-11872
▁Francis	-11873
▁fitness	-11874
▁portray	-11875
▁commands	-11876
▁speakers	-11877
▁curiosity	-11878
▁importantly	-11879
oked	-11880
▁Niger	-11881
▁galaxy	-11882
▁mixing	-11883
▁Species	-11884
▁mercury	-11885
▁nucleus	-11886
▁displays	-11887
▁flooding	-11888
▁sparkled	-11889
▁reservoir	-11890
▁adaptation	-11891
▁geographic	-11892
▁highlights	-11893
▁infectious	-11894
▁13,	-11895
ogram	-11896
▁caul	-11897
▁hunt	-11898
▁bills	-11899
▁Living	-11900
▁diagram	-11901
effective	-11902
▁submitted	-11903
▁irrigation	-11904
eav	-11905
pus	-11906
▁Mental	-11907
▁invite	-11908
▁Therapy	-11909
▁escaped	-11910
gregation	-11911
▁unnecess	-11912
▁cardboard	-11913
▁calculations	-11914
▁NE	-11915
▁deem	-11916
▁tubes	-11917
▁Rachel	-11918
▁elabor	-11919
▁priest	-11920
▁Jesuits	-11921
▁allergy	-11922
akespeare	-11923
▁alphabet	-11924
▁basketball	-11925
▁entreprene	-11926
▁generating	-11927
fold	-11928
uese	-11929
▁Fox	-11930
ermat	-11931
ester	-11932
▁saus	-11933
iatric	-11934
▁Luther	-11935
▁masses	-11936
▁Military	-11937
▁protects	-11938
▁wireless	-11939
flammatory	-11940
Bl	-11941
▁16,	-11942
▁21,	-11943
▁PDF	-11944
▁1800	-11945
▁Name	-11946
acular	-11947
▁Photo	-11948
▁enact	-11949
▁Samuel	-11950
sequently	-11951
▁password	-11952
alin	-11953
ownt	-11954
▁Rand	-11955
▁jolly	-11956
▁wires	-11957
▁partition	-11958
BD	-11959
Ed	-11960
yan	-11961
▁PR	-11962
uble	-11963
velt	-11964
▁Burn	-11965
▁Harr	-11966
▁Poll	-11967
▁forb	-11968
▁deadly	-11969
▁nursing	-11970
▁confront	-11971
▁genetics	-11972
▁liability	-11973
opsy	-11974
▁Hem	-11975
▁WHO	-11976
▁cyl	-11977
father	-11978
▁Davis	-11979
▁Lower	-11980
▁Malays	-11981
▁catast	-11982
▁resting	-11983
about	-11984
▁bites	-11985
▁knock	-11986
▁Sweden	-11987
▁Buddhist	-11988
▁featured	-11989
▁notebook	-11990
▁Mountains	-11991
▁scenarios	-11992
▁Netherlands	-11993
rat	-11994
▁snap	-11995
▁tort	-11996
▁Basic	-11997
▁intra	-11998
▁barely	-11999
▁Depending	-12000
▁overwhelming	-12001
▁Bat	-12002
▁vow	-12003
▁Tony	-12004
▁artif	-12005
▁comparing	-12006
▁dominated	-12007
▁conducting	-12008
▁sandwiches	-12009
▁influential	-12010
IST	-12011
▁Cla	-12012
▁warri	-12013
▁hypert	-12014
▁Republican	-12015
▁accordance	-12016
▁meditation	-12017
▁1995	-12018
▁chip	-12019
ussion	-12020
healthy	-12021
▁Ethiop	-12022
▁namely	-12023
▁notable	-12024
▁Saturday	-12025
▁algorithms	-12026
▁classrooms	-12027
▁illustrate	-12028
▁28,	-12029
inian	-12030
▁irre	-12031
▁float	-12032
▁discom	-12033
▁hockey	-12034
▁ruling	-12035
▁smells	-12036
▁elevator	-12037
▁Afghan	-12038
▁pebble	-12039
▁Example	-12040
▁essence	-12041
▁instant	-12042
▁responded	-12043
▁Psychology	-12044
jud	-12045
▁NOT	-12046
▁Tele	-12047
▁nail	-12048
▁femin	-12049
▁Yellow	-12050
▁Capital	-12051
▁categor	-12052
▁Behavior	-12053
▁touching	-12054
uy	-12055
oding	-12056
▁isot	-12057
Google	-12058
▁crowd	-12059
▁discl	-12060
verages	-12061
▁equipped	-12062
▁fragment	-12063
▁smallest	-12064
▁hurricane	-12065
▁relatives	-12066
▁passengers	-12067
▁3)	-12068
bird	-12069
nals	-12070
▁Was	-12071
arten	-12072
▁Cham	-12073
▁purse	-12074
▁unions	-12075
▁pathways	-12076
▁shoulders	-12077
pm	-12078
▁Ka	-12079
▁cous	-12080
▁draws	-12081
▁Carbon	-12082
▁Related	-12083
▁liberty	-12084
▁counties	-12085
▁compliance	-12086
burgh	-12087
ysical	-12088
▁Roose	-12089
▁Urban	-12090
▁encom	-12091
▁frost	-12092
umental	-12093
▁Winter	-12094
▁Thursday	-12095
▁inherited	-12096
▁capability	-12097
▁nineteenth	-12098
▁participated	-12099
aft	-12100
abel	-12101
cled	-12102
▁Nat	-12103
osity	-12104
indeer	-12105
ulator	-12106
▁horizon	-12107
At	-12108
uto	-12109
▁gir	-12110
▁valued	-12111
▁Download	-12112
▁Additional	-12113
▁Throughout	-12114
▁exclusively	-12115
fare	-12116
othy	-12117
▁bind	-12118
▁unto	-12119
▁sting	-12120
▁scenes	-12121
ilateral	-12122
▁Austria	-12123
▁utilize	-12124
▁cupboard	-12125
▁antibodies	-12126
▁179	-12127
reeze	-12128
▁Leon	-12129
▁2007.	-12130
▁Susan	-12131
▁meter	-12132
▁schem	-12133
▁shrink	-12134
▁flowing	-12135
▁Electric	-12136
▁pandemic	-12137
▁decorated	-12138
▁enthusiastic	-12139
RS	-12140
▁Trib	-12141
▁rehab	-12142
▁Command	-12143
▁Stephen	-12144
▁advertising	-12145
73	-12146
▁Luck	-12147
▁dece	-12148
▁ward	-12149
▁subtle	-12150
ensively	-12151
▁degradation	-12152
▁manufacturer	-12153
▁FOR	-12154
aping	-12155
▁radi	-12156
ishers	-12157
ognition	-12158
▁severely	-12159
▁followers	-12160
▁impatient	-12161
▁mosquitoes	-12162
▁Shakespeare	-12163
▁Wy	-12164
cils	-12165
▁Ball	-12166
▁Cold	-12167
▁Greg	-12168
▁gaps	-12169
rophic	-12170
dominal	-12171
▁dismiss	-12172
▁passport	-12173
▁vomiting	-12174
▁22,	-12175
▁Bad	-12176
▁beta	-12177
▁loll	-12178
▁jokes	-12179
▁League	-12180
▁counts	-12181
iversary	-12182
▁genuine	-12183
ilitation	-12184
▁investors	-12185
▁telescope	-12186
rium	-12187
▁quote	-12188
▁dispers	-12189
▁locally	-12190
▁methane	-12191
▁inclusion	-12192
▁suspected	-12193
▁encourages	-12194
▁conservative	-12195
▁publications	-12196
▁conversations	-12197
htub	-12198
rage	-12199
▁23,	-12200
▁bore	-12201
▁zinc	-12202
▁chalk	-12203
▁fears	-12204
▁gains	-12205
powered	-12206
▁legacy	-12207
▁inadequ	-12208
▁leopard	-12209
▁mapping	-12210
▁marking	-12211
▁disgusting	-12212
▁incredibly	-12213
▁demonstrates	-12214
7%	-12215
imen	-12216
omon	-12217
▁Sens	-12218
▁dehyd	-12219
▁Polish	-12220
▁ethics	-12221
▁poorly	-12222
▁titles	-12223
▁hazards	-12224
▁mobility	-12225
▁velocity	-12226
▁acceptance	-12227
▁progression	-12228
▁Mi	-12229
▁178	-12230
anche	-12231
dated	-12232
sized	-12233
▁100%	-12234
▁lapt	-12235
▁urge	-12236
▁yawn	-12237
spring	-12238
terday	-12239
▁melting	-12240
▁unhappy	-12241
▁Knowledge	-12242
▁injection	-12243
▁freshwater	-12244
▁assessments	-12245
▁Bush	-12246
insula	-12247
orious	-12248
▁Dougl	-12249
▁ought	-12250
▁toxins	-12251
▁twirled	-12252
▁demanded	-12253
▁matching	-12254
▁supplied	-12255
▁completion	-12256
▁politicians	-12257
▁progressive	-12258
2-	-12259
FC	-12260
MD	-12261
▁Tib	-12262
arium	-12263
▁bulk	-12264
▁evac	-12265
▁artic	-12266
▁Period	-12267
▁behalf	-12268
▁commod	-12269
▁100,000	-12270
▁relieve	-12271
▁Movement	-12272
▁Roosevelt	-12273
▁pathogens	-12274
▁appreciation	-12275
▁preservation	-12276
unci	-12277
▁deriv	-12278
▁chains	-12279
▁gloomy	-12280
▁bathtub	-12281
▁cushion	-12282
▁drainage	-12283
▁criticism	-12284
▁examining	-12285
▁possession	-12286
▁constraints	-12287
▁expressions	-12288
▁Rus	-12289
▁gel	-12290
iking	-12291
▁Prob	-12292
▁publ	-12293
upiter	-12294
onymous	-12295
hard	-12296
▁sew	-12297
agger	-12298
human	-12299
▁Hond	-12300
▁STEM	-12301
▁arbit	-12302
▁sticky	-12303
▁captain	-12304
TO	-12305
▁5:	-12306
John	-12307
▁30,	-12308
storm	-12309
▁slid	-12310
▁tune	-12311
▁pigeon	-12312
friendly	-12313
▁pretending	-12314
▁Imag	-12315
▁muff	-12316
icides	-12317
▁convin	-12318
▁slower	-12319
▁grocery	-12320
▁Archives	-12321
▁distinctive	-12322
▁cha	-12323
opath	-12324
range	-12325
▁metap	-12326
▁Millie	-12327
▁robots	-12328
▁repeatedly	-12329
▁philosophical	-12330
inth	-12331
oard	-12332
rans	-12333
▁Sar	-12334
▁Tai	-12335
▁mint	-12336
▁chron	-12337
▁depri	-12338
▁flesh	-12339
feeding	-12340
▁attain	-12341
▁ticket	-12342
▁cabinet	-12343
▁retreat	-12344
▁promotes	-12345
▁belonging	-12346
▁necessity	-12347
▁administered	-12348
don	-12349
high	-12350
oded	-12351
œLetâ	-12352
œWhat	-12353
▁Earl	-12354
▁Very	-12355
▁cane	-12356
▁2016.	-12357
▁Lilly	-12358
▁cataly	-12359
▁Usually	-12360
4),	-12361
▁NG	-12362
esium	-12363
▁Pear	-12364
iskers	-12365
▁reminder	-12366
▁everybody	-12367
▁explaining	-12368
uzzy	-12369
▁cob	-12370
iotic	-12371
atched	-12372
▁chess	-12373
▁lollip	-12374
▁declined	-12375
▁embedded	-12376
▁enabling	-12377
▁mi	-12378
idae	-12379
▁Bot	-12380
▁vic	-12381
▁perf	-12382
amation	-12383
▁anchor	-12384
▁Mission	-12385
▁Perform	-12386
▁Teacher	-12387
▁colleges	-12388
▁volcanic	-12389
▁Caribbean	-12390
lu	-12391
▁(8	-12392
▁LG	-12393
stru	-12394
▁Annie	-12395
angaroo	-12396
▁Tennes	-12397
▁polish	-12398
▁Relations	-12399
PDF	-12400
gie	-12401
anth	-12402
inus	-12403
▁Muh	-12404
▁paws	-12405
▁Diego	-12406
▁reluct	-12407
▁hazardous	-12408
▁discomfort	-12409
▁interpreted	-12410
68	-12411
▁Mir	-12412
uates	-12413
▁Victoria	-12414
▁portions	-12415
▁reserves	-12416
▁microphone	-12417
sk	-12418
ECT	-12419
cor	-12420
hon	-12421
arts	-12422
▁jaw	-12423
▁Treaty	-12424
▁regret	-12425
▁leather	-12426
▁Historic	-12427
▁impression	-12428
▁organisations	-12429
400	-12430
▁ly	-12431
elson	-12432
▁1996	-12433
▁Rain	-12434
▁Month	-12435
▁omega	-12436
▁marker	-12437
▁throne	-12438
▁Scottish	-12439
▁galaxies	-12440
walk	-12441
weet	-12442
▁Nazi	-12443
▁Requ	-12444
wealth	-12445
▁Domin	-12446
▁coinc	-12447
▁gasped	-12448
▁19,	-12449
▁Bio	-12450
teenth	-12451
▁regen	-12452
lections	-12453
▁airplane	-12454
▁counterpart	-12455
3–	-12456
-200	-12457
▁rom	-12458
▁bury	-12459
▁Prior	-12460
▁Words	-12461
▁metres	-12462
▁episode	-12463
▁Personal	-12464
▁operator	-12465
▁packaging	-12466
PD	-12467
ipt	-12468
▁fung	-12469
▁insu	-12470
▁Arthur	-12471
▁abroad	-12472
▁Affairs	-12473
▁skilled	-12474
▁Generally	-12475
9%	-12476
cm	-12477
rise	-12478
▁mug	-12479
▁Observ	-12480
▁fluids	-12481
olecular	-12482
▁Tweetie	-12483
▁secular	-12484
▁checking	-12485
▁compress	-12486
▁epidemic	-12487
▁Industrial	-12488
▁Portuguese	-12489
**	-12490
,’	-12491
unct	-12492
▁wre	-12493
guard	-12494
rology	-12495
▁heter	-12496
▁makers	-12497
▁shovel	-12498
heastern	-12499
secution	-12500
▁reindeer	-12501
▁Materials	-12502
▁headaches	-12503
▁operators	-12504
▁sustained	-12505
actic	-12506
orney	-12507
▁adul	-12508
▁ritual	-12509
▁battles	-12510
▁farther	-12511
▁printer	-12512
▁Corporation	-12513
pson	-12514
atile	-12515
▁Hong	-12516
▁lect	-12517
orship	-12518
vasive	-12519
▁Credit	-12520
▁submit	-12521
▁dispute	-12522
▁quietly	-12523
▁Particip	-12524
▁stressed	-12525
▁arrangement	-12526
œIt	-12527
▁RE	-12528
neath	-12529
▁immigration	-12530
▁documentation	-12531
()	-12532
▁cope	-12533
ropriate	-12534
▁contest	-12535
▁octopus	-12536
▁Intellig	-12537
▁executed	-12538
dimensional	-12539
▁extraction	-12540
▁coordination	-12541
▁investigated	-12542
▁64	-12543
▁Pay	-12544
▁pap	-12545
▁Belg	-12546
▁raft	-12547
▁careg	-12548
▁votes	-12549
▁thrive	-12550
▁lateral	-12551
▁diagnose	-12552
▁snuggled	-12553
▁Political	-12554
▁contributes	-12555
▁inflammatory	-12556
!)	-12557
2:	-12558
6%	-12559
ican	-12560
▁Ale	-12561
▁Sri	-12562
adium	-12563
▁Core	-12564
▁epit	-12565
▁fate	-12566
▁sofa	-12567
▁ties	-12568
imedia	-12569
▁2015,	-12570
▁bikes	-12571
▁denied	-12572
▁guides	-12573
▁Jupiter	-12574
▁volumes	-12575
▁Creative	-12576
▁deterior	-12577
oof	-12578
▁gy	-12579
▁Alf	-12580
▁divor	-12581
▁Summer	-12582
▁educate	-12583
▁reproduction	-12584
▁(3)	-12585
▁Beth	-12586
▁Comb	-12587
▁Cook	-12588
▁jeep	-12589
▁knot	-12590
govern	-12591
▁solely	-12592
jections	-12593
▁stirred	-12594
▁symptom	-12595
▁Indonesia	-12596
▁realistic	-12597
69	-12598
▁Du	-12599
they	-12600
oning	-12601
▁exit	-12602
▁prun	-12603
▁Index	-12604
▁Simon	-12605
▁loans	-12606
▁raven	-12607
▁emerge	-12608
▁nerves	-12609
▁warmth	-12610
stration	-12611
▁Success	-12612
▁profits	-12613
▁convention	-12614
gered	-12615
imony	-12616
▁cycl	-12617
▁Stone	-12618
▁intrig	-12619
▁phases	-12620
▁hygiene	-12621
▁requests	-12622
▁twentieth	-12623
▁inequality	-12624
▁perspectives	-12625
CH	-12626
comm	-12627
▁Ross	-12628
▁atom	-12629
▁obsc	-12630
▁bother	-12631
▁celery	-12632
▁presum	-12633
▁Persian	-12634
▁convinced	-12635
▁observing	-12636
▁antibiotic	-12637
▁indicators	-12638
,'	-12639
▁43	-12640
▁Flu	-12641
▁sket	-12642
▁soar	-12643
▁tale	-12644
itched	-12645
▁acted	-12646
▁cared	-12647
▁patri	-12648
▁commem	-12649
▁bandage	-12650
▁vacation	-12651
▁occurrence	-12652
▁originated	-12653
▁Gh	-12654
▁Rod	-12655
▁abd	-12656
▁verse	-12657
▁census	-12658
▁overse	-12659
▁Indiana	-12660
▁Imperial	-12661
▁Amendment	-12662
▁Pediatric	-12663
▁Population	-12664
▁genetically	-12665
UD	-12666
inator	-12667
▁peach	-12668
▁compat	-12669
▁prophe	-12670
▁modeling	-12671
▁protocols	-12672
▁recovered	-12673
obs	-12674
▁MIT	-12675
▁Talk	-12676
▁rows	-12677
rained	-12678
▁2,000	-12679
▁Staff	-12680
▁recip	-12681
▁Freder	-12682
▁digging	-12683
▁empower	-12684
▁handful	-12685
▁Protocol	-12686
▁surviving	-12687
▁Nep	-12688
▁gay	-12689
▁Body	-12690
▁pony	-12691
▁quad	-12692
thodox	-12693
▁Miller	-12694
▁filthy	-12695
▁viable	-12696
▁squirrels	-12697
▁helicopter	-12698
▁Educational	-12699
▁Dun	-12700
▁axe	-12701
▁Anim	-12702
▁diver	-12703
▁reson	-12704
angular	-12705
▁Archae	-12706
▁cannab	-12707
▁Reserve	-12708
▁blocked	-12709
▁spelling	-12710
▁Parkinson	-12711
▁thickness	-12712
2%	-12713
VD	-12714
▁Ni	-12715
cult	-12716
inea	-12717
▁Cass	-12718
stairs	-12719
▁arsen	-12720
velength	-12721
▁Overall	-12722
▁Quality	-12723
▁Tennessee	-12724
▁economies	-12725
▁stimulate	-12726
▁descendants	-12727
▁architectural	-12728
Ps	-12729
doi	-12730
ili	-12731
▁Qur	-12732
ausea	-12733
mates	-12734
omical	-12735
▁petals	-12736
▁thrown	-12737
▁concert	-12738
▁Buddhism	-12739
▁appetite	-12740
forestation	-12741
▁governance	-12742
▁institutional	-12743
64	-12744
non	-12745
uty	-12746
▁Ky	-12747
renn	-12748
▁bom	-12749
▁Past	-12750
▁slip	-12751
opathy	-12752
roleum	-12753
urated	-12754
▁Torah	-12755
▁gross	-12756
▁couldnâ	-12757
▁poultry	-12758
▁diarrhea	-12759
▁Published	-12760
▁Moh	-12761
▁fee	-12762
▁Sure	-12763
▁bean	-12764
▁Games	-12765
▁Grant	-12766
▁makeup	-12767
▁Results	-12768
▁conclude	-12769
▁Transport	-12770
▁assumptions	-12771
uity	-12772
ulus	-12773
▁Fat	-12774
▁rear	-12775
▁forty	-12776
▁panda	-12777
▁Napole	-12778
▁whilst	-12779
▁Advanced	-12780
lectric	-12781
▁emperor	-12782
▁announce	-12783
▁synthesis	-12784
▁respective	-12785
▁Declaration	-12786
Ad	-12787
▁kay	-12788
▁lig	-12789
▁syll	-12790
▁Types	-12791
▁leash	-12792
emetery	-12793
▁Golden	-12794
▁Series	-12795
▁caulif	-12796
▁judges	-12797
▁loving	-12798
▁suspic	-12799
▁insisted	-12800
▁indicator	-12801
▁precision	-12802
sun	-12803
▁Tro	-12804
▁Eval	-12805
▁Whit	-12806
▁obey	-12807
▁Video	-12808
▁bands	-12809
▁oxide	-12810
instein	-12811
▁foster	-12812
▁surely	-12813
graduate	-12814
▁costume	-12815
▁envious	-12816
▁stuffed	-12817
▁emission	-12818
▁membership	-12819
web	-12820
asal	-12821
▁Boy	-12822
urred	-12823
▁1994	-12824
▁Apple	-12825
▁grape	-12826
▁sticker	-12827
▁intensive	-12828
▁mitochond	-12829
▁acknowledge	-12830
Fig	-12831
egr	-12832
prote	-12833
▁waff	-12834
▁2006.	-12835
▁fraud	-12836
▁porch	-12837
▁Return	-12838
▁casual	-12839
▁decent	-12840
▁harbor	-12841
▁Effects	-12842
▁Evolution	-12843
▁conjunction	-12844
▁Pas	-12845
▁apps	-12846
▁bold	-12847
phones	-12848
▁lunar	-12849
▁norms	-12850
▁nurses	-12851
▁Protect	-12852
▁cheaper	-12853
▁joining	-12854
▁viewing	-12855
▁Exercise	-12856
▁substitute	-12857
.]	-12858
ko	-12859
EST	-12860
pur	-12861
ques	-12862
▁Bun	-12863
▁dot	-12864
▁crypt	-12865
▁guided	-12866
▁wanting	-12867
▁Authority	-12868
▁regulated	-12869
hour	-12870
▁0.0	-12871
ontin	-12872
▁Cert	-12873
▁Broad	-12874
▁Youth	-12875
▁otter	-12876
▁sanct	-12877
▁thief	-12878
▁Regard	-12879
▁entity	-12880
▁Explore	-12881
▁Turkish	-12882
▁replacing	-12883
▁assumption	-12884
▁attempting	-12885
akh	-12886
opt	-12887
pha	-12888
▁2-	-12889
/10.	-12890
Your	-12891
▁hip	-12892
aning	-12893
▁endeav	-12894
▁transm	-12895
▁silence	-12896
▁travels	-12897
▁Character	-12898
rup	-12899
▁Nan	-12900
inton	-12901
▁Carn	-12902
▁Hold	-12903
▁boom	-12904
bestos	-12905
▁2006,	-12906
▁Buddy	-12907
▁weeds	-12908
▁Plants	-12909
▁autumn	-12910
▁Looking	-12911
▁conform	-12912
▁glowing	-12913
▁licensed	-12914
▁strawberry	-12915
▁unnecessary	-12916
▁historically	-12917
▁quantitative	-12918
▁stakeholders	-12919
GS	-12920
iors	-12921
▁Cry	-12922
▁que	-12923
cream	-12924
▁wipe	-12925
abetic	-12926
▁Agree	-12927
▁Danny	-12928
▁seeks	-12929
▁freeze	-12930
▁preschool	-12931
▁afterwards	-12932
▁”	-12933
fat	-12934
▁Josh	-12935
▁Tips	-12936
▁reven	-12937
▁Choose	-12938
▁Commer	-12939
ergarten	-12940
▁extends	-12941
▁explicitly	-12942
▁pollutants	-12943
▁substantially	-12944
FA	-12945
oen	-12946
▁Joh	-12947
▁hind	-12948
▁meets	-12949
▁Reference	-12950
67	-12951
▁85	-12952
▁AT	-12953
oved	-12954
▁Hans	-12955
▁Song	-12956
iotics	-12957
▁dated	-12958
▁fails	-12959
▁sailor	-12960
▁vacuum	-12961
ographer	-12962
▁damaging	-12963
▁machinery	-12964
▁organizing	-12965
sl	-12966
cow	-12967
ouch	-12968
▁27,	-12969
▁Mun	-12970
▁beam	-12971
▁fled	-12972
▁pneum	-12973
viously	-12974
▁absent	-12975
▁fulfill	-12976
▁gorilla	-12977
▁inquiry	-12978
▁kidneys	-12979
▁adorable	-12980
▁chapters	-12981
▁receptors	-12982
▁considerably	-12983
▁descriptions	-12984
▁satisfaction	-12985
Qu	-12986
onto	-12987
▁Rout	-12988
▁lend	-12989
rasound	-12990
▁basics	-12991
aughters	-12992
▁depicted	-12993
▁dimension	-12994
▁simulation	-12995
MM	-12996
igo	-12997
aver	-12998
stan	-12999
▁Bir	-13000
▁Syn	-13001
▁twe	-13002
▁Iowa	-13003
▁dual	-13004
▁fees	-13005
arning	-13006
▁2000,	-13007
▁glove	-13008
▁slept	-13009
▁teasp	-13010
▁lenses	-13011
▁sugars	-13012
▁cardiac	-13013
▁multipl	-13014
▁reserve	-13015
▁mutation	-13016
OT	-13017
hu	-13018
yt	-13019
etal	-13020
hero	-13021
▁Fle	-13022
ogene	-13023
▁Tour	-13024
▁icon	-13025
▁speaks	-13026
▁united	-13027
▁gaining	-13028
▁immense	-13029
▁Cultural	-13030
▁disposal	-13031
▁promoted	-13032
▁incorrect	-13033
inflammatory	-13034
▁electronics	-13035
▁14.	-13036
▁29,	-13037
onent	-13038
▁Site	-13039
▁lips	-13040
▁filters	-13041
▁distract	-13042
.5	-13043
41	-13044
who	-13045
eland	-13046
shore	-13047
▁Pict	-13048
▁murd	-13049
▁node	-13050
▁grave	-13051
▁stain	-13052
▁closest	-13053
▁massage	-13054
▁shortly	-13055
▁wounded	-13056
▁Memorial	-13057
▁globally	-13058
▁Fortunately	-13059
▁Nort	-13060
▁fluct	-13061
▁remed	-13062
pendent	-13063
▁Census	-13064
▁deemed	-13065
▁accessed	-13066
▁integral	-13067
▁swinging	-13068
▁encompass	-13069
▁incidents	-13070
▁departments	-13071
wart	-13072
▁Sud	-13073
▁stiff	-13074
▁gotten	-13075
▁imposed	-13076
▁suspend	-13077
▁personally	-13078
fr	-13079
eed	-13080
law	-13081
▁RA	-13082
five	-13083
oler	-13084
▁toe	-13085
igher	-13086
▁Hart	-13087
▁Vill	-13088
▁Walk	-13089
▁swamp	-13090
▁mounted	-13091
▁railway	-13092
▁clearing	-13093
Ow	-13094
▁UC	-13095
onge	-13096
▁24,	-13097
▁lob	-13098
▁Sant	-13099
▁beer	-13100
▁peas	-13101
▁ambul	-13102
▁bulbs	-13103
▁bricks	-13104
▁yields	-13105
▁graphic	-13106
▁longest	-13107
▁contracts	-13108
▁prevalent	-13109
otechnology	-13110
▁uncertainty	-13111
▁49	-13112
Give	-13113
seud	-13114
▁AIDS	-13115
▁Camb	-13116
▁blend	-13117
▁traged	-13118
etheless	-13119
▁powered	-13120
▁combining	-13121
▁underneath	-13122
8%	-13123
agus	-13124
amma	-13125
iler	-13126
othel	-13127
▁jail	-13128
itated	-13129
itives	-13130
▁anten	-13131
▁digit	-13132
▁projected	-13133
▁ingredient	-13134
▁EN	-13135
igma	-13136
▁Lie	-13137
▁junk	-13138
▁Clara	-13139
▁fleet	-13140
▁stared	-13141
▁Country	-13142
▁ensures	-13143
▁sweater	-13144
▁weekend	-13145
▁pressures	-13146
▁prolonged	-13147
▁presidential	-13148
▁feas	-13149
▁todd	-13150
▁assass	-13151
▁jewelry	-13152
▁phrases	-13153
▁ceremony	-13154
▁publicly	-13155
▁agreements	-13156
▁decreasing	-13157
▁introducing	-13158
▁refrigerator	-13159
2/	-13160
œYes	-13161
▁Eat	-13162
▁bip	-13163
▁audi	-13164
▁fits	-13165
strich	-13166
▁Tibet	-13167
▁dozen	-13168
▁genus	-13169
▁illum	-13170
▁medal	-13171
▁opera	-13172
▁Dublin	-13173
▁beside	-13174
▁matrix	-13175
▁wallet	-13176
▁Healthy	-13177
▁permits	-13178
▁sprayed	-13179
▁disasters	-13180
▁motivated	-13181
▁comparable	-13182
▁overweight	-13183
oga	-13184
▁Deep	-13185
▁File	-13186
▁twin	-13187
arians	-13188
▁Bunny	-13189
▁Prize	-13190
restrial	-13191
▁Lawrence	-13192
▁entities	-13193
▁designers	-13194
▁coordinate	-13195
▁cauliflower	-13196
▁collaborative	-13197
yers	-13198
zech	-13199
▁blo	-13200
,000.	-13201
backs	-13202
first	-13203
heres	-13204
▁Argent	-13205
▁Muhammad	-13206
▁expenses	-13207
▁symbolic	-13208
▁Louisiana	-13209
▁monitored	-13210
ECD	-13211
lob	-13212
▁kg	-13213
▁Luke	-13214
▁Virt	-13215
▁mart	-13216
ousing	-13217
▁Initi	-13218
▁deple	-13219
▁repro	-13220
▁facial	-13221
▁recipe	-13222
▁Luckily	-13223
▁freezer	-13224
▁Evidence	-13225
▁campaigns	-13226
▁intervals	-13227
▁applicable	-13228
Not	-13229
▁(9	-13230
olas	-13231
oxic	-13232
ubby	-13233
▁20%	-13234
▁Cape	-13235
▁Lady	-13236
▁slope	-13237
▁desper	-13238
activity	-13239
▁bracelet	-13240
▁clapping	-13241
▁tremendous	-13242
erves	-13243
▁probe	-13244
connect	-13245
develop	-13246
▁oyster	-13247
▁virtue	-13248
▁Getting	-13249
▁Prevent	-13250
▁somehow	-13251
▁distances	-13252
▁intu	-13253
▁decom	-13254
▁Ottoman	-13255
▁Franklin	-13256
▁electrom	-13257
▁interval	-13258
▁requested	-13259
▁Ib	-13260
ooped	-13261
▁urged	-13262
▁cement	-13263
▁silent	-13264
▁consisted	-13265
▁provinces	-13266
▁mainstream	-13267
▁programmes	-13268
7–	-13269
PL	-13270
esy	-13271
▁Sky	-13272
enged	-13273
onics	-13274
▁Ever	-13275
▁Mong	-13276
▁fauc	-13277
▁Veter	-13278
▁pharmac	-13279
▁polymer	-13280
▁Philosophy	-13281
3:	-13282
▁GH	-13283
▁ic	-13284
▁bay	-13285
uming	-13286
▁Hope	-13287
▁gums	-13288
▁mast	-13289
▁2014.	-13290
▁2018.	-13291
▁Leave	-13292
▁caffe	-13293
▁milit	-13294
▁Democr	-13295
▁voters	-13296
▁patches	-13297
▁determines	-13298
uru	-13299
▁Fem	-13300
▁kin	-13301
▁Clear	-13302
▁Radio	-13303
▁hippo	-13304
▁distress	-13305
▁Financial	-13306
▁Publishing	-13307
She	-13308
aza	-13309
▁700	-13310
apore	-13311
▁taxi	-13312
▁2013,	-13313
▁Birth	-13314
▁yacht	-13315
plement	-13316
▁edited	-13317
▁static	-13318
atherine	-13319
▁caution	-13320
▁comprehension	-13321
TML	-13322
post	-13323
arked	-13324
utors	-13325
▁Barn	-13326
▁Kong	-13327
▁nick	-13328
▁Analy	-13329
▁loads	-13330
ubercul	-13331
▁margin	-13332
▁unlock	-13333
▁devastating	-13334
▁transparent	-13335
4%	-13336
ova	-13337
▁Ages	-13338
▁uter	-13339
▁Clark	-13340
▁spear	-13341
▁spill	-13342
▁agenda	-13343
▁imagery	-13344
itzerland	-13345
▁founding	-13346
▁headache	-13347
▁rotation	-13348
▁abdominal	-13349
▁jurisdiction	-13350
▁surroundings	-13351
PV	-13352
▁q	-13353
▁CC	-13354
▁(17	-13355
▁mant	-13356
▁Saturn	-13357
▁heated	-13358
▁trophy	-13359
essional	-13360
▁kangaroo	-13361
▁mechanic	-13362
▁scheduled	-13363
▁concentrate	-13364
▁antioxidants	-13365
59	-13366
ea	-13367
gon	-13368
vas	-13369
irts	-13370
orie	-13371
weed	-13372
▁Hal	-13373
▁Ted	-13374
white	-13375
▁duct	-13376
▁tags	-13377
▁Frame	-13378
osphere	-13379
▁Wright	-13380
▁punish	-13381
ropolitan	-13382
▁prostate	-13383
▁sensation	-13384
▁PS	-13385
anol	-13386
▁Sci	-13387
iolet	-13388
▁maze	-13389
▁hosts	-13390
▁semic	-13391
▁plural	-13392
▁praise	-13393
▁refres	-13394
▁avocado	-13395
▁collaps	-13396
▁aluminum	-13397
▁informal	-13398
ogy	-13399
▁pix	-13400
▁grat	-13401
aments	-13402
▁vapor	-13403
▁Bishop	-13404
▁parish	-13405
▁Palestine	-13406
▁geography	-13407
▁combinations	-13408
BL	-13409
ao	-13410
eded	-13411
▁90%	-13412
▁cer	-13413
reced	-13414
▁toll	-13415
▁2005,	-13416
▁Build	-13417
▁grasp	-13418
▁Around	-13419
▁defining	-13420
▁indication	-13421
▁wavelength	-13422
▁physiological	-13423
Bec	-13424
pron	-13425
▁Jam	-13426
:10.10	-13427
Figure	-13428
ailing	-13429
▁Kenya	-13430
▁costly	-13431
▁Brownie	-13432
▁Edition	-13433
▁bounced	-13434
▁compact	-13435
▁implant	-13436
▁peripher	-13437
▁sna	-13438
vance	-13439
▁Anti	-13440
▁Rena	-13441
▁evap	-13442
▁admin	-13443
▁giggle	-13444
▁locate	-13445
▁shouts	-13446
lastname	-13447
▁compete	-13448
▁recycled	-13449
▁neighborhoods	-13450
:00	-13451
▁Ay	-13452
▁ADHD	-13453
▁glory	-13454
product	-13455
▁Almost	-13456
▁barking	-13457
▁relates	-13458
ciplinary	-13459
▁attending	-13460
▁residence	-13461
▁teachings	-13462
▁wondering	-13463
▁completing	-13464
▁anniversary	-13465
▁Independence	-13466
acre	-13467
▁Aqu	-13468
▁Dat	-13469
▁Gil	-13470
▁Vers	-13471
redict	-13472
▁chairs	-13473
▁dynasty	-13474
▁glasses	-13475
ilization	-13476
ochemical	-13477
▁altitude	-13478
▁limiting	-13479
▁delivering	-13480
▁satellites	-13481
▁neurological	-13482
600	-13483
▁WH	-13484
▁Shah	-13485
▁caut	-13486
induced	-13487
▁Images	-13488
▁modify	-13489
▁candles	-13490
▁updates	-13491
▁perceive	-13492
▁pressing	-13493
▁therapist	-13494
▁thermometer	-13495
▁VI	-13496
conf	-13497
four	-13498
▁exem	-13499
venile	-13500
▁dwarf	-13501
▁overt	-13502
Because	-13503
assment	-13504
▁Greeks	-13505
▁delayed	-13506
▁inspect	-13507
▁strikes	-13508
▁Sustainable	-13509
▁corporations	-13510
▁geographical	-13511
▁Sab	-13512
▁seiz	-13513
▁masks	-13514
▁rival	-13515
▁shops	-13516
▁Nuclear	-13517
▁carrier	-13518
aky	-13519
▁41	-13520
only	-13521
plan	-13522
uddy	-13523
▁chimney	-13524
▁coating	-13525
▁circuits	-13526
▁readings	-13527
▁initiated	-13528
▁volunteer	-13529
▁correlation	-13530
▁revolutionary	-13531
IO	-13532
tha	-13533
inge	-13534
roke	-13535
rust	-13536
▁2016,	-13537
▁infra	-13538
▁Fisher	-13539
▁ostrich	-13540
▁eligible	-13541
▁geometry	-13542
▁socially	-13543
▁Typically	-13544
▁equations	-13545
▁religions	-13546
▁workshops	-13547
▁manufactured	-13548
DR	-13549
ESS	-13550
gebra	-13551
gress	-13552
▁dign	-13553
▁Leaders	-13554
▁banking	-13555
▁harmony	-13556
▁fisherman	-13557
▁corruption	-13558
▁Ru	-13559
▁Hug	-13560
▁Bron	-13561
▁flea	-13562
▁basin	-13563
▁obese	-13564
▁tales	-13565
▁Integr	-13566
▁firmly	-13567
▁accused	-13568
▁undergo	-13569
▁automated	-13570
▁invisible	-13571
▁constitute	-13572
▁specialists	-13573
▁certification	-13574
risk	-13575
esome	-13576
there	-13577
▁pots	-13578
▁Diagn	-13579
▁champ	-13580
▁mixer	-13581
▁Newton	-13582
▁billions	-13583
▁imported	-13584
▁toxicity	-13585
▁Collection	-13586
▁interviews	-13587
▁Switzerland	-13588
ania	-13589
ocus	-13590
▁Gro	-13591
▁Market	-13592
▁Visual	-13593
▁racism	-13594
▁raises	-13595
▁grandmother	-13596
▁archaeological	-13597
▁considerations	-13598
oths	-13599
▁Cust	-13600
▁Marx	-13601
▁Tell	-13602
▁aids	-13603
▁2017.	-13604
▁Nobel	-13605
▁downt	-13606
▁wells	-13607
▁Hawaii	-13608
▁Defense	-13609
▁advised	-13610
▁mankind	-13611
▁passive	-13612
▁scooter	-13613
▁secrets	-13614
▁Regional	-13615
.-	-13616
obb	-13617
▁$2	-13618
held	-13619
▁Cru	-13620
▁SQL	-13621
reach	-13622
▁Travel	-13623
▁expense	-13624
▁puzzles	-13625
WS	-13626
dam	-13627
oub	-13628
zens	-13629
▁Papa	-13630
itance	-13631
▁gland	-13632
▁recur	-13633
▁Includ	-13634
▁breeze	-13635
▁slipper	-13636
▁constitu	-13637
▁fantastic	-13638
▁seemingly	-13639
▁structured	-13640
▁practitioners	-13641
imi	-13642
▁dw	-13643
eous	-13644
arity	-13645
▁Myth	-13646
▁pulse	-13647
▁Beyond	-13648
▁actors	-13649
▁Israeli	-13650
▁aquatic	-13651
▁closing	-13652
▁automatic	-13653
▁enterprise	-13654
▁assignments	-13655
▁highlighted	-13656
▁functionality	-13657
Eng	-13658
▁Ze	-13659
▁181	-13660
ilton	-13661
giving	-13662
monary	-13663
General	-13664
▁praised	-13665
▁efficacy	-13666
▁suppress	-13667
▁strengths	-13668
▁methodology	-13669
▁radioactive	-13670
▁settlements	-13671
▁Institutions	-13672
Yay	-13673
ben	-13674
igl	-13675
▁Bed	-13676
▁dip	-13677
▁bases	-13678
forward	-13679
▁enters	-13680
▁roared	-13681
▁fathers	-13682
▁induced	-13683
▁unclear	-13684
▁biblical	-13685
▁blankets	-13686
▁microbes	-13687
▁Afghanistan	-13688
pted	-13689
uilt	-13690
▁Init	-13691
▁matt	-13692
letter	-13693
▁spite	-13694
▁vendor	-13695
othermal	-13696
▁Conserv	-13697
▁Planning	-13698
▁somebody	-13699
▁stopping	-13700
▁negotiations	-13701
58	-13702
Ne	-13703
▁Sic	-13704
olded	-13705
osynt	-13706
▁Server	-13707
▁builds	-13708
▁gastro	-13709
▁racing	-13710
▁meanings	-13711
▁republic	-13712
▁advocates	-13713
▁discusses	-13714
▁footprint	-13715
▁jellyfish	-13716
▁navigation	-13717
▁Kl	-13718
▁Cra	-13719
▁bon	-13720
œThat	-13721
▁Show	-13722
▁feat	-13723
▁2005.	-13724
▁Territ	-13725
▁sphere	-13726
▁Patrick	-13727
▁shadows	-13728
▁cherries	-13729
▁clusters	-13730
▁compromise	-13731
DT	-13732
hol	-13733
keley	-13734
oceros	-13735
▁exert	-13736
▁modes	-13737
▁millenn	-13738
▁pathway	-13739
▁unpreced	-13740
▁separately	-13741
▁earthquakes	-13742
Pe	-13743
▁Wat	-13744
third	-13745
▁(197	-13746
▁LGBT	-13747
▁Frequ	-13748
▁revel	-13749
▁evolve	-13750
▁customs	-13751
▁dialect	-13752
▁forgave	-13753
▁labeled	-13754
▁Malaysia	-13755
▁fundament	-13756
▁interrupt	-13757
▁legislative	-13758
aki	-13759
good	-13760
▁voy	-13761
▁Poor	-13762
▁deck	-13763
iggers	-13764
school	-13765
▁landf	-13766
▁mines	-13767
▁paints	-13768
▁Account	-13769
▁cartoon	-13770
▁learner	-13771
ationally	-13772
organisms	-13773
▁Marshall	-13774
▁Stanford	-13775
▁sculpture	-13776
▁Renaissance	-13777
▁unprecedented	-13778
inf	-13779
sens	-13780
lessly	-13781
▁purely	-13782
▁Strateg	-13783
▁wonders	-13784
▁hypertension	-13785
▁Si	-13786
▁Bah	-13787
▁Born	-13788
▁crib	-13789
▁Brook	-13790
▁admit	-13791
▁recru	-13792
▁equity	-13793
▁median	-13794
--------	-13795
▁Question	-13796
ulu	-13797
icut	-13798
▁15.	-13799
ienna	-13800
letal	-13801
ucing	-13802
▁deals	-13803
▁lumber	-13804
▁melted	-13805
▁occasions	-13806
▁legitimate	-13807
▁continually	-13808
▁Communication	-13809
En	-13810
FT	-13811
▁(7	-13812
jamin	-13813
▁Shar	-13814
▁ranks	-13815
inology	-13816
▁lasted	-13817
▁companion	-13818
▁desirable	-13819
▁emergence	-13820
some	-13821
▁2.5	-13822
▁Bag	-13823
▁PRO	-13824
▁Sound	-13825
▁bunch	-13826
▁waving	-13827
▁chewing	-13828
▁eagerly	-13829
▁wedding	-13830
▁voluntary	-13831
▁insulation	-13832
alg	-13833
two	-13834
urd	-13835
wick	-13836
▁Matt	-13837
▁Czech	-13838
▁creek	-13839
▁cherry	-13840
▁dancer	-13841
▁rating	-13842
▁titled	-13843
olutions	-13844
▁frowned	-13845
▁heading	-13846
resistant	-13847
▁slippery	-13848
▁inspection	-13849
▁networking	-13850
MC	-13851
Res	-13852
jan	-13853
ods	-13854
▁Ce	-13855
elen	-13856
▁Ltd	-13857
▁ket	-13858
▁Prep	-13859
▁Allen	-13860
▁Titan	-13861
▁throws	-13862
▁microbi	-13863
fficiency	-13864
▁arteries	-13865
▁dysfunction	-13866
▁explanations	-13867
▁intermediate	-13868
▁demonstration	-13869
▁environmentally	-13870
hr	-13871
nea	-13872
▁5-	-13873
comp	-13874
plus	-13875
▁182	-13876
▁alb	-13877
▁dye	-13878
▁USDA	-13879
▁lith	-13880
▁2003,	-13881
▁coats	-13882
iciency	-13883
▁chubby	-13884
▁enroll	-13885
▁zoomed	-13886
▁briefly	-13887
▁combust	-13888
▁legally	-13889
▁rabbits	-13890
▁reforms	-13891
▁formally	-13892
▁elevation	-13893
▁Literature	-13894
ho	-13895
ATE	-13896
▁Pi	-13897
arse	-13898
gets	-13899
iden	-13900
▁thou	-13901
imeter	-13902
▁reass	-13903
▁Castle	-13904
▁Eating	-13905
▁eraser	-13906
▁Members	-13907
▁ceremon	-13908
▁raining	-13909
▁musicians	-13910
▁respected	-13911
▁pharmaceutical	-13912
1-	-13913
erk	-13914
▁BBC	-13915
ordan	-13916
ushing	-13917
▁caffeine	-13918
▁musician	-13919
▁promises	-13920
▁activists	-13921
▁fragments	-13922
▁offspring	-13923
▁specimens	-13924
▁reliability	-13925
kyo	-13926
▁AF	-13927
pton	-13928
▁Pil	-13929
▁hut	-13930
feren	-13931
roups	-13932
▁Girl	-13933
▁Team	-13934
▁Upon	-13935
▁erad	-13936
▁Rosie	-13937
▁impul	-13938
istence	-13939
oriented	-13940
especially	-13941
▁commander	-13942
GA	-13943
alo	-13944
nance	-13945
▁Stop	-13946
▁scal	-13947
estion	-13948
▁Chair	-13949
▁Pharm	-13950
▁stays	-13951
iencies	-13952
▁Impact	-13953
▁Mechan	-13954
▁binary	-13955
▁prints	-13956
▁stolen	-13957
▁applaud	-13958
▁gasoline	-13959
▁mattress	-13960
▁similarly	-13961
▁accommodate	-13962
▁disciplines	-13963
63	-13964
Us	-13965
usc	-13966
uana	-13967
ocene	-13968
▁Pack	-13969
▁cerv	-13970
immune	-13971
▁melan	-13972
▁tutor	-13973
▁Ground	-13974
▁lesser	-13975
▁inadequate	-13976
▁predictions	-13977
Im	-13978
10,	-13979
Max	-13980
▁26,	-13981
▁Raj	-13982
matic	-13983
▁grabs	-13984
▁Howard	-13985
▁Stress	-13986
▁nausea	-13987
▁sisters	-13988
▁Diseases	-13989
▁segments	-13990
▁challenged	-13991
idth	-13992
▁Dry	-13993
▁Ruby	-13994
tically	-13995
▁Easter	-13996
▁carcin	-13997
▁sandbox	-13998
▁squeeze	-13999
▁tourist	-14000
▁receptor	-14001
▁artifacts	-14002
▁exclusive	-14003
▁explosion	-14004
▁interfere	-14005
uberculosis	-14006
▁motorcycle	-14007
▁pronounced	-14008
oni	-14009
sur	-14010
whe	-14011
▁CE	-14012
bral	-14013
opol	-14014
roach	-14015
▁Khan	-14016
▁Safe	-14017
▁gang	-14018
▁Arist	-14019
▁exams	-14020
▁nails	-14021
▁pinch	-14022
▁learns	-14023
▁extinct	-14024
▁contexts	-14025
▁imprison	-14026
▁struggled	-14027
▁landscapes	-14028
▁illustrates	-14029
▁illustrations	-14030
pers	-14031
▁Ara	-14032
eterm	-14033
ethyl	-14034
▁Cloud	-14035
▁alleg	-14036
ulative	-14037
▁careers	-14038
▁loading	-14039
▁Disorder	-14040
▁impacted	-14041
▁eliminated	-14042
▁prosperity	-14043
supp	-14044
tics	-14045
▁Nich	-14046
▁Soci	-14047
▁beep	-14048
▁incons	-14049
▁interf	-14050
▁symmet	-14051
▁tripped	-14052
▁welding	-14053
▁Resource	-14054
▁commemor	-14055
▁generator	-14056
▁poisoning	-14057
▁appliances	-14058
▁achievements	-14059
eu	-14060
ART	-14061
aug	-14062
▁Coal	-14063
▁Publ	-14064
▁Total	-14065
▁energ	-14066
▁memor	-14067
▁Maggie	-14068
▁blocking	-14069
▁watershed	-14070
▁calculation	-14071
▁foundations	-14072
▁groundwater	-14073
irs	-14074
esty	-14075
▁Dor	-14076
izard	-14077
olith	-14078
▁Utah	-14079
▁soda	-14080
urally	-14081
▁Sugar	-14082
▁Gospel	-14083
▁floods	-14084
▁suited	-14085
▁tackle	-14086
▁modules	-14087
▁transit	-14088
▁infinite	-14089
▁plastics	-14090
▁analyzing	-14091
▁identifies	-14092
▁recognised	-14093
▁astronomers	-14094
▁discovering	-14095
▁transactions	-14096
€“	-14097
pol	-14098
▁PH	-14099
▁Ye	-14100
mind	-14101
▁177	-14102
▁Gord	-14103
▁dots	-14104
▁succ	-14105
▁datas	-14106
▁elite	-14107
▁waist	-14108
▁explos	-14109
▁notably	-14110
▁oranges	-14111
▁Napoleon	-14112
▁mushroom	-14113
▁Singapore	-14114
▁certified	-14115
▁accumulation	-14116
53	-14117
ref	-14118
▁10-	-14119
▁Byz	-14120
▁Les	-14121
▁Bapt	-14122
▁unst	-14123
infect	-14124
▁Price	-14125
▁Stock	-14126
▁Planet	-14127
▁Whiskers	-14128
▁consolid	-14129
▁inability	-14130
▁shopkeeper	-14131
▁Commonwealth	-14132
ui	-14133
bet	-14134
edge	-14135
▁Oak	-14136
▁mule	-14137
plicit	-14138
▁Kings	-14139
▁fired	-14140
▁realm	-14141
▁underm	-14142
▁critics	-14143
▁eternal	-14144
▁pirates	-14145
▁ringing	-14146
▁Document	-14147
▁assessing	-14148
▁controller	-14149
▁extensively	-14150
▁photography	-14151
▁interference	-14152
som	-14153
▁Pra	-14154
atern	-14155
▁peel	-14156
▁glands	-14157
▁Benefits	-14158
▁Kentucky	-14159
▁maternal	-14160
▁attribute	-14161
▁extending	-14162
▁undertaken	-14163
RL	-14164
oic	-14165
▁00	-14166
▁TR	-14167
eron	-14168
▁Gas	-14169
▁Anth	-14170
▁Game	-14171
▁Laur	-14172
▁2014,	-14173
▁Beach	-14174
▁Flore	-14175
▁grill	-14176
▁angles	-14177
▁closure	-14178
▁Recently	-14179
▁Software	-14180
▁breakdown	-14181
▁survivors	-14182
appropriate	-14183
▁critically	-14184
eton	-14185
▁Haz	-14186
▁buz	-14187
▁Block	-14188
▁retire	-14189
▁revised	-14190
▁sadness	-14191
▁advocate	-14192
▁Chemistry	-14193
▁disturbed	-14194
▁1-	-14195
▁47	-14196
imity	-14197
▁Viol	-14198
▁didnâ	-14199
▁lifes	-14200
▁banned	-14201
▁ambulance	-14202
▁Connecticut	-14203
▁insufficient	-14204
htm	-14205
▁Ark	-14206
▁Cab	-14207
▁Spr	-14208
aders	-14209
opoly	-14210
▁Flow	-14211
esteem	-14212
▁affil	-14213
▁unite	-14214
▁Moscow	-14215
▁Taiwan	-14216
▁Vienna	-14217
▁softly	-14218
▁verbal	-14219
▁whites	-14220
▁inserted	-14221
▁comprised	-14222
▁fisheries	-14223
▁Aboriginal	-14224
▁Protestant	-14225
▁Mathematics	-14226
62	-14227
pret	-14228
rubs	-14229
▁130	-14230
▁Imm	-14231
▁artery	-14232
▁intact	-14233
▁shifts	-14234
▁upward	-14235
▁Prophet	-14236
▁arguing	-14237
▁Benjamin	-14238
▁journals	-14239
▁judicial	-14240
▁databases	-14241
▁variability	-14242
bus	-14243
mus	-14244
Lear	-14245
acks	-14246
▁140	-14247
arson	-14248
utter	-14249
▁guests	-14250
▁leaned	-14251
▁Alliance	-14252
▁coloring	-14253
▁depressed	-14254
▁outbreaks	-14255
▁controversy	-14256
cat	-14257
adays	-14258
▁dump	-14259
▁echo	-14260
▁flags	-14261
▁cavity	-14262
▁plaque	-14263
▁scarce	-14264
▁descript	-14265
▁operates	-14266
▁Antarctic	-14267
▁strongest	-14268
hew	-14269
ido	-14270
▁Il	-14271
▁pad	-14272
▁Title	-14273
▁bowel	-14274
▁Morris	-14275
▁Queens	-14276
▁tribal	-14277
▁winner	-14278
▁worlds	-14279
▁wounds	-14280
▁curtain	-14281
▁baseline	-14282
▁navigate	-14283
▁Southeast	-14284
▁firstname	-14285
▁reinforce	-14286
▁triggered	-14287
TSD	-14288
ilies	-14289
▁acre	-14290
▁cram	-14291
▁quot	-14292
glasses	-14293
hematic	-14294
▁Colomb	-14295
▁talent	-14296
▁embrace	-14297
▁menstru	-14298
▁Universe	-14299
▁uncommon	-14300
▁Definition	-14301
▁apologized	-14302
▁conception	-14303
rer	-14304
▁IL	-14305
▁SD	-14306
rett	-14307
vens	-14308
▁Syd	-14309
▁gau	-14310
▁sul	-14311
▁Eric	-14312
▁ours	-14313
▁sake	-14314
▁Citiz	-14315
▁sends	-14316
▁faucet	-14317
▁inputs	-14318
▁uncons	-14319
building	-14320
▁deployed	-14321
▁retained	-14322
▁publishing	-14323
▁restaurants	-14324
▁exploitation	-14325
▁strawberries	-14326
km	-14327
rock	-14328
user	-14329
▁Coc	-14330
▁url	-14331
grass	-14332
▁Fest	-14333
▁peek	-14334
▁stew	-14335
hetics	-14336
▁blame	-14337
▁kitty	-14338
▁pound	-14339
▁radar	-14340
▁Annual	-14341
▁Determ	-14342
▁luxury	-14343
▁goddess	-14344
▁asbestos	-14345
▁integrate	-14346
▁certificate	-14347
PE	-14348
ige	-14349
rea	-14350
▁TB	-14351
irie	-14352
▁Pos	-14353
ridge	-14354
▁deny	-14355
▁heel	-14356
▁slic	-14357
▁Fried	-14358
▁Immun	-14359
▁hairc	-14360
▁slice	-14361
▁Active	-14362
▁gloves	-14363
▁rebell	-14364
▁shiver	-14365
▁Comment	-14366
▁ecology	-14367
▁fireman	-14368
▁shouting	-14369
▁daughters	-14370
▁purchasing	-14371
▁antioxidant	-14372
▁entertainment	-14373
▁95	-14374
educ	-14375
ibli	-14376
▁Appl	-14377
▁brut	-14378
▁foam	-14379
castle	-14380
▁noble	-14381
▁dispar	-14382
▁Proceed	-14383
▁highway	-14384
▁lollipop	-14385
▁Agreement	-14386
▁altogether	-14387
VI	-14388
-17	-14389
Bye	-14390
kal	-14391
nty	-14392
udi	-14393
Tube	-14394
eted	-14395
▁asc	-14396
▁kit	-14397
iscal	-14398
▁Loss	-14399
▁tech	-14400
culiar	-14401
second	-14402
▁burst	-14403
▁disse	-14404
▁pumps	-14405
acteria	-14406
▁Dental	-14407
▁blacks	-14408
▁poster	-14409
▁Brother	-14410
▁editing	-14411
▁quarrel	-14412
▁screens	-14413
▁warfare	-14414
▁dependence	-14415
▁Agricultural	-14416
ERS	-14417
hal	-14418
▁BP	-14419
▁indo	-14420
▁navy	-14421
gender	-14422
ocaust	-14423
▁firef	-14424
▁myths	-14425
▁shrug	-14426
factory	-14427
▁Course	-14428
▁decides	-14429
▁outlined	-14430
▁strictly	-14431
▁subjected	-14432
▁outstanding	-14433
800	-14434
orse	-14435
▁Fun	-14436
▁ank	-14437
ctica	-14438
vised	-14439
▁HTML	-14440
▁Live	-14441
ensing	-14442
▁Multip	-14443
▁charts	-14444
▁frames	-14445
▁Primary	-14446
▁spiders	-14447
▁patience	-14448
▁Northwest	-14449
▁workforce	-14450
▁destructive	-14451
▁Consequently	-14452
▁nu	-14453
idel	-14454
odia	-14455
▁80%	-14456
▁Der	-14457
▁Gab	-14458
akota	-14459
▁1992	-14460
houses	-14461
▁Share	-14462
▁Walter	-14463
▁fortun	-14464
▁lining	-14465
▁nearest	-14466
▁Columbus	-14467
▁wetlands	-14468
▁Communist	-14469
▁balancing	-14470
▁empirical	-14471
▁Guidelines	-14472
▁acquisition	-14473
▁chemotherapy	-14474
▁Ts	-14475
▁Fif	-14476
proof	-14477
▁clues	-14478
▁intim	-14479
▁keyboard	-14480
▁Emergency	-14481
▁placement	-14482
▁Initiative	-14483
▁negatively	-14484
▁presenting	-14485
▁sweetheart	-14486
▁transcript	-14487
▁similarities	-14488
….	-14489
▁DS	-14490
ilib	-14491
krit	-14492
odus	-14493
stud	-14494
namese	-14495
▁2004,	-14496
▁feast	-14497
▁naval	-14498
▁steak	-14499
▁dozens	-14500
▁excluded	-14501
▁squeezed	-14502
▁threatening	-14503
▁sufficiently	-14504
ugs	-14505
▁CM	-14506
▁bod	-14507
▁Dick	-14508
▁Trump	-14509
▁yards	-14510
▁Norway	-14511
▁Nothing	-14512
▁spirits	-14513
unciation	-14514
▁ministry	-14515
▁investigations	-14516
▁raz	-14517
▁Lanc	-14518
▁jury	-14519
▁rhet	-14520
▁Causes	-14521
▁quoted	-14522
▁currents	-14523
▁freezing	-14524
▁monetary	-14525
▁stimulation	-14526
arett	-14527
clusion	-14528
▁Weight	-14529
▁folded	-14530
▁stamps	-14531
▁rituals	-14532
▁Technical	-14533
▁obstacles	-14534
▁promotion	-14535
ante	-14536
▁18.	-14537
▁las	-14538
▁Moore	-14539
▁kayak	-14540
▁relies	-14541
▁Hopkins	-14542
▁museums	-14543
▁Function	-14544
▁designer	-14545
▁laughter	-14546
▁peculiar	-14547
▁releases	-14548
roximately	-14549
▁switching	-14550
▁Intelligence	-14551
▁4-	-14552
▁EC	-14553
▁Rap	-14554
▁rou	-14555
marks	-14556
▁Buzz	-14557
▁resur	-14558
▁Swedish	-14559
▁inspire	-14560
▁lacking	-14561
▁schemes	-14562
▁premature	-14563
▁inevitable	-14564
▁instructor	-14565
▁provincial	-14566
bot	-14567
▁58	-14568
emen	-14569
▁hub	-14570
▁Cool	-14571
▁Days	-14572
▁Visit	-14573
▁eagle	-14574
▁Simple	-14575
▁aeropl	-14576
▁Someone	-14577
▁abdomen	-14578
▁Berkeley	-14579
▁strangers	-14580
▁villagers	-14581
▁evaluating	-14582
▁resilience	-14583
▁acupuncture	-14584
UM	-14585
uo	-14586
▁16.	-14587
▁Roc	-14588
illes	-14589
▁Hell	-14590
▁Stage	-14591
▁Venus	-14592
▁Editor	-14593
▁Douglas	-14594
▁Machine	-14595
▁crawling	-14596
▁petition	-14597
▁teaspoon	-14598
▁triggers	-14599
▁Something	-14600
▁activated	-14601
▁fireplace	-14602
▁Loc	-14603
▁USB	-14604
bound	-14605
▁bend	-14606
▁ions	-14607
▁Chris	-14608
▁Transl	-14609
▁laying	-14610
▁shakes	-14611
▁dishwas	-14612
▁refugee	-14613
▁tablets	-14614
▁Magazine	-14615
▁destroying	-14616
▁prohibited	-14617
▁blueberries	-14618
▁citizenship	-14619
fs	-14620
▁31,	-14621
▁Rat	-14622
▁Alan	-14623
▁Heat	-14624
▁Nile	-14625
access	-14626
utable	-14627
▁Notes	-14628
▁napkin	-14629
▁offset	-14630
▁Methods	-14631
▁giraffe	-14632
▁dissolved	-14633
▁divisions	-14634
▁influenza	-14635
▁rhinoceros	-14636
cap	-14637
aran	-14638
ardo	-14639
away	-14640
ixed	-14641
▁Eve	-14642
▁Mas	-14643
▁2004.	-14644
▁Innov	-14645
▁Manch	-14646
▁Sydney	-14647
▁checks	-14648
▁Genesis	-14649
▁stripes	-14650
▁watering	-14651
▁extracted	-14652
▁unhealthy	-14653
▁Antarctica	-14654
▁Confederate	-14655
Hz	-14656
▁CL	-14657
▁CON	-14658
▁McK	-14659
▁desp	-14660
rosion	-14661
▁imbal	-14662
▁Michel	-14663
▁biomass	-14664
▁episodes	-14665
bons	-14666
tech	-14667
itime	-14668
▁arom	-14669
alling	-14670
▁Award	-14671
▁spoil	-14672
version	-14673
▁Sports	-14674
▁fungus	-14675
▁centres	-14676
▁lesions	-14677
▁secured	-14678
▁employer	-14679
▁autonomous	-14680
▁compression	-14681
▁standardized	-14682
▁strengthening	-14683
Sam	-14684
lah	-14685
pen	-14686
tec	-14687
weg	-14688
Will	-14689
leys	-14690
▁Ped	-14691
▁meta	-14692
ocytes	-14693
writing	-14694
▁Compan	-14695
▁Nelson	-14696
▁pastry	-14697
▁stocks	-14698
▁summit	-14699
▁tastes	-14700
▁synthes	-14701
▁weighed	-14702
▁Accessed	-14703
▁digestion	-14704
By	-14705
paren	-14706
▁Plus	-14707
▁Stay	-14708
▁Zion	-14709
▁recl	-14710
▁rept	-14711
▁fossils	-14712
▁vanished	-14713
▁demanding	-14714
▁reconstruction	-14715
via	-14716
bian	-14717
▁kne	-14718
▁lap	-14719
iller	-14720
▁rash	-14721
energy	-14722
▁Tokyo	-14723
▁fungi	-14724
▁reply	-14725
▁Danish	-14726
▁Lesson	-14727
▁backed	-14728
▁contra	-14729
▁prelim	-14730
▁taller	-14731
▁urinary	-14732
▁Syndrome	-14733
▁inferior	-14734
▁countryside	-14735
ni	-14736
0.0	-14737
vic	-14738
▁6:	-14739
otive	-14740
▁mama	-14741
▁3,000	-14742
▁Sadly	-14743
▁swung	-14744
▁Police	-14745
▁darker	-14746
▁killer	-14747
acterial	-14748
▁garbage	-14749
▁surgeon	-14750
▁Partners	-14751
▁Problems	-14752
▁catching	-14753
▁confined	-14754
▁explores	-14755
▁holidays	-14756
▁chromosome	-14757
▁recommendation	-14758
adi	-14759
tem	-14760
▁10:	-14761
▁30%	-14762
▁Amb	-14763
▁Maine	-14764
arettes	-14765
looking	-14766
▁radish	-14767
▁grasses	-14768
▁grazing	-14769
[...]
